{
  "version": "1.0",
  "truncation": null,
  "padding": null,
  "added_tokens": [
    {
      "id": 0,
      "content": "<pad>",
      "single_word": false,
      "lstrip": false,
      "rstrip": false,
      "normalized": false,
      "special": true
    },
    {
      "id": 1,
      "content": "<unk>",
      "single_word": false,
      "lstrip": false,
      "rstrip": false,
      "normalized": false,
      "special": true
    },
    {
      "id": 2,
      "content": "<s>",
      "single_word": false,
      "lstrip": false,
      "rstrip": false,
      "normalized": false,
      "special": true
    },
    {
      "id": 3,
      "content": "</s>",
      "single_word": false,
      "lstrip": false,
      "rstrip": false,
      "normalized": false,
      "special": true
    },
    {
      "id": 4,
      "content": "<mask>",
      "single_word": false,
      "lstrip": false,
      "rstrip": false,
      "normalized": false,
      "special": true
    }
  ],
  "normalizer": null,
  "pre_tokenizer": {
    "type": "ByteLevel",
    "add_prefix_space": false,
    "trim_offsets": true,
    "use_regex": true
  },
  "post_processor": {
    "type": "ByteLevel",
    "add_prefix_space": true,
    "trim_offsets": true,
    "use_regex": true
  },
  "decoder": {
    "type": "ByteLevel",
    "add_prefix_space": true,
    "trim_offsets": true,
    "use_regex": true
  },
  "model": {
    "type": "BPE",
    "dropout": null,
    "unk_token": null,
    "continuing_subword_prefix": null,
    "end_of_word_suffix": null,
    "fuse_unk": false,
    "byte_fallback": false,
    "ignore_merges": false,
    "vocab": {
      "<pad>": 0,
      "<unk>": 1,
      "<s>": 2,
      "</s>": 3,
      "<mask>": 4,
      "!": 5,
      "\"": 6,
      "#": 7,
      "$": 8,
      "%": 9,
      "&": 10,
      "'": 11,
      "(": 12,
      ")": 13,
      "*": 14,
      "+": 15,
      ",": 16,
      "-": 17,
      ".": 18,
      "/": 19,
      "0": 20,
      "1": 21,
      "2": 22,
      "3": 23,
      "4": 24,
      "5": 25,
      "6": 26,
      "7": 27,
      "8": 28,
      "9": 29,
      ":": 30,
      ";": 31,
      "<": 32,
      "=": 33,
      ">": 34,
      "?": 35,
      "@": 36,
      "A": 37,
      "B": 38,
      "C": 39,
      "D": 40,
      "E": 41,
      "F": 42,
      "G": 43,
      "H": 44,
      "I": 45,
      "J": 46,
      "K": 47,
      "L": 48,
      "M": 49,
      "N": 50,
      "O": 51,
      "P": 52,
      "Q": 53,
      "R": 54,
      "S": 55,
      "T": 56,
      "U": 57,
      "V": 58,
      "W": 59,
      "X": 60,
      "Y": 61,
      "Z": 62,
      "[": 63,
      "\\": 64,
      "]": 65,
      "^": 66,
      "_": 67,
      "`": 68,
      "a": 69,
      "b": 70,
      "c": 71,
      "d": 72,
      "e": 73,
      "f": 74,
      "g": 75,
      "h": 76,
      "i": 77,
      "j": 78,
      "k": 79,
      "l": 80,
      "m": 81,
      "n": 82,
      "o": 83,
      "p": 84,
      "q": 85,
      "r": 86,
      "s": 87,
      "t": 88,
      "u": 89,
      "v": 90,
      "w": 91,
      "x": 92,
      "y": 93,
      "z": 94,
      "{": 95,
      "|": 96,
      "}": 97,
      "~": 98,
      "¡": 99,
      "¢": 100,
      "£": 101,
      "¤": 102,
      "¥": 103,
      "¦": 104,
      "§": 105,
      "¨": 106,
      "©": 107,
      "ª": 108,
      "«": 109,
      "¬": 110,
      "®": 111,
      "¯": 112,
      "°": 113,
      "±": 114,
      "²": 115,
      "³": 116,
      "´": 117,
      "µ": 118,
      "¶": 119,
      "·": 120,
      "¸": 121,
      "¹": 122,
      "º": 123,
      "»": 124,
      "¼": 125,
      "½": 126,
      "¾": 127,
      "¿": 128,
      "À": 129,
      "Á": 130,
      "Â": 131,
      "Ã": 132,
      "Ä": 133,
      "Å": 134,
      "Æ": 135,
      "Ç": 136,
      "È": 137,
      "É": 138,
      "Ê": 139,
      "Ë": 140,
      "Ì": 141,
      "Í": 142,
      "Î": 143,
      "Ï": 144,
      "Ð": 145,
      "Ñ": 146,
      "Ò": 147,
      "Ó": 148,
      "Ô": 149,
      "Õ": 150,
      "Ö": 151,
      "×": 152,
      "Ø": 153,
      "Ù": 154,
      "Ú": 155,
      "Û": 156,
      "Ü": 157,
      "Ý": 158,
      "Þ": 159,
      "ß": 160,
      "à": 161,
      "á": 162,
      "â": 163,
      "ã": 164,
      "ä": 165,
      "å": 166,
      "æ": 167,
      "ç": 168,
      "è": 169,
      "é": 170,
      "ê": 171,
      "ë": 172,
      "ì": 173,
      "í": 174,
      "î": 175,
      "ï": 176,
      "ð": 177,
      "ñ": 178,
      "ò": 179,
      "ó": 180,
      "ô": 181,
      "õ": 182,
      "ö": 183,
      "÷": 184,
      "ø": 185,
      "ù": 186,
      "ú": 187,
      "û": 188,
      "ü": 189,
      "ý": 190,
      "þ": 191,
      "ÿ": 192,
      "Ā": 193,
      "ā": 194,
      "Ă": 195,
      "ă": 196,
      "Ą": 197,
      "ą": 198,
      "Ć": 199,
      "ć": 200,
      "Ĉ": 201,
      "ĉ": 202,
      "Ċ": 203,
      "ċ": 204,
      "Č": 205,
      "č": 206,
      "Ď": 207,
      "ď": 208,
      "Đ": 209,
      "đ": 210,
      "Ē": 211,
      "ē": 212,
      "Ĕ": 213,
      "ĕ": 214,
      "Ė": 215,
      "ė": 216,
      "Ę": 217,
      "ę": 218,
      "Ě": 219,
      "ě": 220,
      "Ĝ": 221,
      "ĝ": 222,
      "Ğ": 223,
      "ğ": 224,
      "Ġ": 225,
      "ġ": 226,
      "Ģ": 227,
      "ģ": 228,
      "Ĥ": 229,
      "ĥ": 230,
      "Ħ": 231,
      "ħ": 232,
      "Ĩ": 233,
      "ĩ": 234,
      "Ī": 235,
      "ī": 236,
      "Ĭ": 237,
      "ĭ": 238,
      "Į": 239,
      "į": 240,
      "İ": 241,
      "ı": 242,
      "Ĳ": 243,
      "ĳ": 244,
      "Ĵ": 245,
      "ĵ": 246,
      "Ķ": 247,
      "ķ": 248,
      "ĸ": 249,
      "Ĺ": 250,
      "ĺ": 251,
      "Ļ": 252,
      "ļ": 253,
      "Ľ": 254,
      "ľ": 255,
      "Ŀ": 256,
      "ŀ": 257,
      "Ł": 258,
      "ł": 259,
      "Ń": 260,
      "áĪ": 261,
      "áį": 262,
      "áĬ": 263,
      "áĭ": 264,
      "áī": 265,
      "áį¡": 266,
      "áĮ": 267,
      "áĬķ": 268,
      "Ġt": 269,
      "he": 270,
      "áĪĿ": 271,
      "Ġthe": 272,
      "Ġa": 273,
      "áīł": 274,
      "áĬł": 275,
      "áĪŃ": 276,
      "áīµ": 277,
      "áĬ¥": 278,
      "áĭį": 279,
      "áĪį": 280,
      "áĪĪ": 281,
      "áĪµ": 282,
      "Ġw": 283,
      "Ġo": 284,
      "nd": 285,
      "in": 286,
      "Ġs": 287,
      "áĭ¨": 288,
      "áĭŃ": 289,
      "áĪĺ": 290,
      "ou": 291,
      "áį¢": 292,
      "áĬĲ": 293,
      "re": 294,
      "áĭ°": 295,
      "áī¥": 296,
      "áĬĵ": 297,
      "áī°": 298,
      "áĭ«": 299,
      "Ġof": 300,
      "áį¥": 301,
      "áĬ¨": 302,
      "áĭµ": 303,
      "ha": 304,
      "áī½": 305,
      "Ġand": 306,
      "áĭĪ": 307,
      "áĪĭ": 308,
      "áĮį": 309,
      "Ġb": 310,
      "Ġf": 311,
      "áĪ°": 312,
      "is": 313,
      "er": 314,
      "ll": 315,
      "áĪ«": 316,
      "Ġto": 317,
      "áĮĪ": 318,
      "or": 319,
      "it": 320,
      "es": 321,
      "on": 322,
      "Ġm": 323,
      "áĪ¨": 324,
      "áī£": 325,
      "Ġc": 326,
      "áįł": 327,
      "en": 328,
      "áī³": 329,
      "ing": 330,
      "Ġy": 331,
      "ed": 332,
      "áĬ¥áĬķ": 333,
      "Ġd": 334,
      "áĪĽ": 335,
      "áįłáįł": 336,
      "Ġyou": 337,
      "áį¤": 338,
      "áĭļ": 339,
      "Ġh": 340,
      "áĭĺ": 341,
      "Ġp": 342,
      "áĬ¹": 343,
      "Ġin": 344,
      "áĪī": 345,
      "áīĢ": 346,
      "áī¸": 347,
      "om": 348,
      "Ġn": 349,
      "áīħ": 350,
      "Ġl": 351,
      "ar": 352,
      "Ġha": 353,
      "áĬŃ": 354,
      "at": 355,
      "áĪ³": 356,
      "áī¸áĭį": 357,
      "Ġbe": 358,
      "áĪħ": 359,
      "áĬķáĪĿ": 360,
      "an": 361,
      "áī¥áĪ": 362,
      "áĭ³": 363,
      "áĮł": 364,
      "Ġhe": 365,
      "áįį": 366,
      "se": 367,
      "áĪ±": 368,
      "Ġáīł": 369,
      "Ġg": 370,
      "ĠI": 371,
      "áįĪ": 372,
      "ĠáĬł": 373,
      "**": 374,
      "ot": 375,
      "ho": 376,
      "Ġwi": 377,
      "áĮĭ": 378,
      "áĬ¥áĮį": 379,
      "ay": 380,
      "ve": 381,
      "áĮ¥": 382,
      "áĬ½": 383,
      "áĪļ": 384,
      "áĬ¥áĮįáĭļ": 385,
      "ĶáĪŃ": 386,
      "id": 387,
      "ĠA": 388,
      "ut": 389,
      "áī¥áĪĶáĪŃ": 390,
      "áĬ¥áĮįáĭļáĬł": 391,
      "áī±": 392,
      "as": 393,
      "im": 394,
      "Ġáį¢": 395,
      "áĬ¥áĮįáĭļáĬłáī¥áĪĶáĪŃ": 396,
      "le": 397,
      "Ġwill": 398,
      "ĠH": 399,
      "áĬķáĭµ": 400,
      "ĠL": 401,
      "áĭĪáĭ°": 402,
      "áĭİ": 403,
      "áĪ¥": 404,
      "hat": 405,
      "áįłáįłáįłáįł": 406,
      "The": 407,
      "áīĥ": 408,
      "Ġfor": 409,
      "áĪ©": 410,
      "ow": 411,
      "Ġe": 412,
      "áĮ£": 413,
      "áĭĭ": 414,
      "áī¶": 415,
      "áĪķ": 416,
      "Ġáĭ¨": 417,
      "am": 418,
      "Ġon": 419,
      "ith": 420,
      "áĪįáĮ": 421,
      "ir": 422,
      "gh": 423,
      "áĬĽ": 424,
      "Ġis": 425,
      "od": 426,
      "áĭ²": 427,
      "áĭħ": 428,
      "Ġit": 429,
      "áĭĲ": 430,
      "Ġnot": 431,
      "OR": 432,
      "áĭķ": 433,
      "áĬ«": 434,
      "us": 435,
      "ic": 436,
      "ld": 437,
      "áį¦": 438,
      "áĪŃáĪ±": 439,
      "áĪŀ": 440,
      "Ġth": 441,
      "ORD": 442,
      "áĭħáĪī": 443,
      "Ġwith": 444,
      "ĠLORD": 445,
      "áĭ±": 446,
      "áĭİáī½": 447,
      "áĬ¾": 448,
      "áĬĲáīł": 449,
      "Ġthat": 450,
      "áĬ¤": 451,
      "ra": 452,
      "ent": 453,
      "ĠáĪ": 454,
      "áĭĿ": 455,
      "ĠJ": 456,
      "Ġyour": 457,
      "Ġwho": 458,
      "Ġthem": 459,
      "el": 460,
      "Ġhis": 461,
      "áĬ¥áĬķáĭ°": 462,
      "Ġk": 463,
      "Ġre": 464,
      "ver": 465,
      "her": 466,
      "and": 467,
      "ĠM": 468,
      "Ġfr": 469,
      "et": 470,
      "Ġsa": 471,
      "áĮī": 472,
      "áī½áĬ¹": 473,
      "áī¤": 474,
      "Ġ\"": 475,
      "Ġthey": 476,
      "áĬĲáĭį": 477,
      "ĠG": 478,
      "ri": 479,
      "áĬ¥áĪµ": 480,
      "ĠáĪĺ": 481,
      "Ġwe": 482,
      "ght": 483,
      "áĭĵ": 484,
      "ce": 485,
      "Ġall": 486,
      "Ġu": 487,
      "Ġfrom": 488,
      "áĭĽ": 489,
      "ur": 490,
      "ĠAnd": 491,
      "áĬĳ": 492,
      "áĪĻ": 493,
      "st": 494,
      "áĮĬ": 495,
      "áĭľ": 496,
      "Ġhim": 497,
      "ke": 498,
      "Ġhave": 499,
      "áĬĸ": 500,
      "Ġwas": 501,
      "áĬĲáĮĪ": 502,
      "áĬ¥áĬķáĭ²": 503,
      "Ġson": 504,
      "ĠS": 505,
      "áĭĺáĬķáĭµ": 506,
      "ad": 507,
      "ion": 508,
      "áī¢": 509,
      "áĪĭáĭŃ": 510,
      "áĭ¨áĪļ": 511,
      "il": 512,
      "áĬĿ": 513,
      "áĬ¢": 514,
      "You": 515,
      "ĠáĬ¥": 516,
      "ord": 517,
      "áī¡": 518,
      "áĪĮ": 519,
      "áĬłáĪĪ": 520,
      "Ġwh": 521,
      "áĮĬáĭľ": 522,
      "áīµáĬķ": 523,
      "áĬķáī°": 524,
      "ore": 525,
      "ro": 526,
      "Ġsha": 527,
      "áĮ½": 528,
      "áĪµáĪĪ": 529,
      "Ġas": 530,
      "áĪĪáĬ¹": 531,
      "áĭĬ": 532,
      "th": 533,
      "áĪĨ": 534,
      "áįĭ": 535,
      "al": 536,
      "Ġan": 537,
      "ĠáĬ¨": 538,
      "áĪ®": 539,
      "áĭ®": 540,
      "ah": 541,
      "áĭįáĬķ": 542,
      ".\"": 543,
      "Ġst": 544,
      "áĬĶ": 545,
      "áĮįáĬķ": 546,
      "áĪª": 547,
      "áĬ¤áĪį": 548,
      "ĠGod": 549,
      "áĪł": 550,
      "Ġshall": 551,
      "Ġme": 552,
      "ĠáĭĪ": 553,
      "Ġtheir": 554,
      "Ġli": 555,
      "Ġsaid": 556,
      "áįĬ": 557,
      "áĪģ": 558,
      "áĪ´": 559,
      "Ġare": 560,
      "áīµáĪĿ": 561,
      "áĭµáĪŃ": 562,
      "Ġcom": 563,
      "áĭļáĪħ": 564,
      "ess": 565,
      "ain": 566,
      "ame": 567,
      "áĮĮ": 568,
      "áĪĺáĬķ": 569,
      "áĪİ": 570,
      "áĪĲ": 571,
      "Ġse": 572,
      "ĠáĭŃ": 573,
      "ĠHe": 574,
      "áĪ°áĭį": 575,
      "áĮ¸": 576,
      "áį§": 577,
      "ac": 578,
      "ven": 579,
      "ly": 580,
      "ich": 581,
      "áī»": 582,
      "áĪŃáĪµ": 583,
      "áĪ°áĪĽ": 584,
      "ĠáĪĪ": 585,
      "ĠYou": 586,
      "áĬ¥áĬĶ": 587,
      "ĠB": 588,
      "áĪįáĮĨ": 589,
      "áĭ«áĬķ": 590,
      "au": 591,
      "áĪµáĪĿ": 592,
      "Ġgo": 593,
      "áĭįáĪĿ": 594,
      "Ġmy": 595,
      "red": 596,
      "áĭ¨áī°": 597,
      "Ġwhich": 598,
      "áĬķáĮī": 599,
      "hen": 600,
      "áīħáĭ±": 601,
      "Ġ**": 602,
      "Ġsay": 603,
      "Ġdo": 604,
      "Ġking": 605,
      "Ġde": 606,
      "áīĨ": 607,
      "ĠIs": 608,
      "áĪŃáĪ±áĪĿ": 609,
      "áĮ¡": 610,
      "Ġwere": 611,
      "áįłáįłáįłáįłáįłáįłáįłáįł": 612,
      "est": 613,
      "áĪ½": 614,
      "áī¹": 615,
      "Ġáį¡": 616,
      "áĪĿáĬķ": 617,
      "áĭĻ": 618,
      "Ġup": 619,
      "Ġman": 620,
      "áĬłáĭŃ": 621,
      "Ġáī°": 622,
      "áĬĲáĮĪáĪŃ": 623,
      "áĮĭáĪ«": 624,
      "Ġhas": 625,
      "Ġsp": 626,
      "Ġal": 627,
      "ers": 628,
      "áĪįáĮħ": 629,
      "áĪĬ": 630,
      "áĪ¬": 631,
      "op": 632,
      "Then": 633,
      "Ġout": 634,
      "áĪ«áĬ¤áĪį": 635,
      "áĮħ": 636,
      "rael": 637,
      "áĭŃáĪħ": 638,
      "áĮ»": 639,
      "ĠIsrael": 640,
      "rou": 641,
      "áĬĲáīłáĪŃ": 642,
      "áĬ¥áĪµáĪ«áĬ¤áĪį": 643,
      "Ġpe": 644,
      "Ġone": 645,
      "áĬ¥áĬĵ": 646,
      "áĪĺáĪį": 647,
      "áĬ¢áĭ¨": 648,
      "áĭĥ": 649,
      "áĬĢ": 650,
      "áĮĮáī³": 651,
      "áĭ°áĪ¨": 652,
      "áĪįáĮĨáī½": 653,
      "Ġsons": 654,
      "ant": 655,
      "ĠE": 656,
      "fore": 657,
      "Ġhad": 658,
      "ter": 659,
      "Ġby": 660,
      "áī½áĬķ": 661,
      "áīłáīµ": 662,
      "áĪĿáĪĭ": 663,
      "Ġthis": 664,
      "áī°áĬĽ": 665,
      "áĪķáĭĿ": 666,
      "áīĢáĬķ": 667,
      "áĪĪáīµ": 668,
      "áĭļáĭ«": 669,
      "áĬłáĬķ": 670,
      "áĪįáĬĵ": 671,
      "áĪªáĭ«": 672,
      "Ġday": 673,
      "For": 674,
      "áīģ": 675,
      "ong": 676,
      "Ġat": 677,
      "áī´": 678,
      "Ġhou": 679,
      "áĪŃáĭ«": 680,
      "áĪĪáĪĿ": 681,
      "áĪĪáĭį": 682,
      "one": 683,
      "áĬ¥áĬķáĭ²áĪħ": 684,
      "áī¥áĪŃ": 685,
      "Ġthere": 686,
      "ĠT": 687,
      "áĬ¨áī°": 688,
      "ab": 689,
      "áĬ¥áĬĲ": 690,
      "áĬĲáīłáĪ¨": 691,
      "ation": 692,
      "áĪľ": 693,
      "áĭ¶": 694,
      "Ġpeop": 695,
      "áĪĭáī¸áĭį": 696,
      "áĪĿáĭµáĪŃ": 697,
      "áĬ©": 698,
      "Ġam": 699,
      "áĬĲáīµ": 700,
      "ather": 701,
      "if": 702,
      "all": 703,
      "nt": 704,
      "Ġbec": 705,
      "ear": 706,
      "Ġoff": 707,
      "Ġag": 708,
      "__": 709,
      "la": 710,
      "áĪµáīµ": 711,
      "áĬª": 712,
      "ak": 713,
      "ight": 714,
      "Ġhouse": 715,
      "sel": 716,
      "Ġso": 717,
      "áĪ¸": 718,
      "áĬŃáĪŃáĪµ": 719,
      "pt": 720,
      "áĬłáī£": 721,
      "áĪĥ": 722,
      "áĬłáĪį": 723,
      "áįĬáīµ": 724,
      "os": 725,
      "áĬ¥áĬķáĭ³": 726,
      "ake": 727,
      "áĭ°áĪŃ": 728,
      "ard": 729,
      "Ġland": 730,
      "áĪ¥áĪ«": 731,
      "áĪ£": 732,
      "áī¤áīµ": 733,
      "ĠO": 734,
      "ive": 735,
      "res": 736,
      "áĭ«áĪµ": 737,
      "Ġpeople": 738,
      "ĠHis": 739,
      "Ġagain": 740,
      "áĬ»": 741,
      "áĬłáīµ": 742,
      "áīħáĭ±áĪµ": 743,
      "áĭµáĬķ": 744,
      "so": 745,
      "áĬłáĪĿáĪĭ": 746,
      "Ġor": 747,
      "áįī": 748,
      "áĭµáĪ¨": 749,
      "ok": 750,
      "Ġher": 751,
      "ist": 752,
      "áī±áĪĿ": 753,
      "áĪµáĮ¥": 754,
      "ĠHim": 755,
      "áįŁ": 756,
      "Ġv": 757,
      "ĠP": 758,
      "áĪĺáĮ£": 759,
      "Ġbut": 760,
      "ie": 761,
      "Ġáĭĺ": 762,
      "ness": 763,
      "ĠáĪĿ": 764,
      "ĠD": 765,
      "áĬ¥áĮįáĭļáĬłáī¥áĪĶáĪŃáĪĿ": 766,
      "áī¦": 767,
      "áĬ¥áĬĵáĬķáī°": 768,
      "áĬłáĬķáī°": 769,
      "ast": 770,
      "áĬķáĬĵ": 771,
      "áĪĺáĪĪ": 772,
      "áĮ¢": 773,
      "ud": 774,
      "And": 775,
      "ity": 776,
      "ves": 777,
      "ings": 778,
      "áī¸áĭįáĪĿ": 779,
      "áĬ¾áĬĲ": 780,
      "Ġbr": 781,
      "Ġcame": 782,
      "áĬłáĬķáĭµ": 783,
      "áĬĵáĮĪ": 784,
      "ill": 785,
      "áĭ°áĮį": 786,
      "Ġhand": 787,
      "Ġj": 788,
      "Ġab": 789,
      "áīĥáĪį": 790,
      "áĬ¾áĬķ": 791,
      "Ġwhen": 792,
      "Ġcon": 793,
      "ct": 794,
      "ĠMy": 795,
      "áĪ¡": 796,
      "But": 797,
      "ge": 798,
      "áĪ¶": 799,
      "áĪĭáī½áĬ¹": 800,
      "Ġmen": 801,
      "áĪ²": 802,
      "ĠW": 803,
      "áĭ©": 804,
      "áĬ¢áĭ¨áĪ±": 805,
      "hold": 806,
      "urn": 807,
      "own": 808,
      "Ġ'": 809,
      "áĭĪáĭŃ": 810,
      "ĠáĭĪáĭ°": 811,
      "Ġint": 812,
      "Now": 813,
      "Ġr": 814,
      "em": 815,
      "ul": 816,
      "áĪĭáĪį": 817,
      "áĪ°áĭİáī½": 818,
      "áĭ°áĮįáĪŀ": 819,
      "'s": 820,
      "áīį": 821,
      "Ġáī¥": 822,
      "ause": 823,
      "áīłáĪĺ": 824,
      "áĭĪáĪŃ": 825,
      "áĮ¨": 826,
      "Ġno": 827,
      "áĬ¼": 828,
      "áĬ¥áĮħ": 829,
      "Ġáīµ": 830,
      "ĠC": 831,
      "ĠThe": 832,
      "Ġkn": 833,
      "áĬķáĮīáĪ¥": 834,
      "áĪ»": 835,
      "out": 836,
      "Ġfather": 837,
      "ous": 838,
      "ck": 839,
      "Ġus": 840,
      "Ġpro": 841,
      "Ġáĭ«": 842,
      "Ġlo": 843,
      "Ġalso": 844,
      "um": 845,
      "pp": 846,
      "áĭĭáĪį": 847,
      "Ġbefore": 848,
      "Ġagainst": 849,
      "áī±áĬķ": 850,
      "áĬ¥áĪµáĬ¨": 851,
      "Ġáĭ°": 852,
      "áĬŃáĪŃáĪµáī¶": 853,
      "áĪĨáĭŃ": 854,
      "ĠYour": 855,
      "áĮİ": 856,
      "áī¶áī½": 857,
      "ch": 858,
      "áĪĪáĬ½": 859,
      "ind": 860,
      "áĪĪáī½": 861,
      "Ġinto": 862,
      "art": 863,
      "hose": 864,
      "ies": 865,
      "áĭ´": 866,
      "áĬłáĪµ": 867,
      "áĪ³áīµ": 868,
      "áĬħ": 869,
      "ath": 870,
      "áĬŃáĪŃáĪµáī¶áĪµ": 871,
      "áĪ°áī£": 872,
      "Ġcome": 873,
      "ĠáĮĬáĭľ": 874,
      "áīĤ": 875,
      "ol": 876,
      "iah": 877,
      "Ġshe": 878,
      "Ġits": 879,
      "Ġser": 880,
      "other": 881,
      "áĭįáĪµáĮ¥": 882,
      "very": 883,
      "ep": 884,
      "Ġover": 885,
      "áĭĪáĮ£": 886,
      "áĬĵáī¸áĭį": 887,
      "av": 888,
      "áīłáĪį": 889,
      "ust": 890,
      "áīµáĬĵ": 891,
      "áī¥áĪİ": 892,
      "áĬķáĮīáĪ¡": 893,
      "Ġmay": 894,
      "áĬ¥áĬķáĪĨ": 895,
      "ome": 896,
      "áī¢áĭ«": 897,
      "áī°áīĢ": 898,
      "ould": 899,
      "áĬ¨áī°áĪĽ": 900,
      "Ġsaying": 901,
      "He": 902,
      "áĭ¨áĬ¥áĮįáĭļáĬłáī¥áĪĶáĪŃ": 903,
      "áĭĵáĪĺ": 904,
      "han": 905,
      "áĪ³áĬķ": 906,
      "áĬ¢áĭ¨áĪ±áĪµ": 907,
      "Ġdid": 908,
      "fe": 909,
      "áĮ¦": 910,
      "ĠN": 911,
      "áĮĲ": 912,
      "Ġoffer": 913,
      "So": 914,
      "Ġlike": 915,
      "ale": 916,
      "ved": 917,
      "Ġword": 918,
      "áĭµáĪ¨áĪµ": 919,
      "Ġbl": 920,
      "Ġthose": 921,
      "áĬłáĮĪ": 922,
      "ice": 923,
      "áī¸áĭįáĬķ": 924,
      "áĮŃ": 925,
      "reat": 926,
      "áĬ®": 927,
      "áĬ¾áĬĵ": 928,
      "Ġwor": 929,
      "áĭ¨áĪĿ": 930,
      "Ġac": 931,
      "áĬĲáīłáĪ©": 932,
      "áīłáĪ°": 933,
      "ide": 934,
      "Ġear": 935,
      "áīĪ": 936,
      "Ġour": 937,
      "our": 938,
      "áĬ°": 939,
      "áī°áĭį": 940,
      "áĬłáĪĪáĭį": 941,
      "áĭ¬": 942,
      "áĭķáīµ": 943,
      "áĪĪáĭĺ": 944,
      "áĬ½áĬķ": 945,
      "áīĢáĪŃ": 946,
      "áĪĭáĪĿ": 947,
      "Ġáī£": 948,
      "áĮįáī¥": 949,
      "Ġcomm": 950,
      "Ġknow": 951,
      "áī²": 952,
      "ine": 953,
      "Ġwent": 954,
      "áĪµáĬķ": 955,
      "áĭĪáĬķáĭµ": 956,
      "ered": 957,
      "áįįáĪ«": 958,
      "áīłáĪŃ": 959,
      "áĭ³áĭĬ": 960,
      "Ġdown": 961,
      "right": 962,
      "áĬ«áĬ¨": 963,
      "áĬłáĪĿáĪĭáĬŃ": 964,
      "Ġtw": 965,
      "áīłáĬ¥": 966,
      "áīłáĭļáĭ«": 967,
      "les": 968,
      "áīłáĪ¨": 969,
      "Ġwhat": 970,
      "ade": 971,
      "áįİ": 972,
      "ise": 973,
      "áįĪáĪµ": 974,
      "self": 975,
      "áī³áĪĭ": 976,
      "ood": 977,
      "áĭ³áĬķ": 978,
      "way": 979,
      "áĮĪáĭµ": 980,
      "hi": 981,
      "Ġar": 982,
      "ell": 983,
      "Ġmade": 984,
      "áĬĢáĮ¢": 985,
      "ure": 986,
      "ted": 987,
      "áĮĪáĪĪ": 988,
      "áĬ¥áĬķáĮ": 989,
      "ĠáĪģ": 990,
      "áĬĲáĪ£": 991,
      "áĪīáīµ": 992,
      "Ġaf": 993,
      "áĪ·": 994,
      "hed": 995,
      "áĭįáĭ«áĬķ": 996,
      "áĪĽáĬķ": 997,
      "áĪ³áĪĮ": 998,
      "Ġho": 999,
      "áĪłáĪ«": 1000,
      "áĭļáĪħáĪĿ": 1001,
      "ach": 1002,
      "áĭŃáĭĪ": 1003,
      "áĭİáī¹": 1004,
      "***": 1005,
      "Ġle": 1006,
      "avid": 1007,
      "áĭ«áĪĪ": 1008,
      "áĮĪáī£": 1009,
      "qu": 1010,
      "Ġ****": 1011,
      "áĪķáĭĿáī¡": 1012,
      "áĪĺáĪµ": 1013,
      "Ġserv": 1014,
      "Ġacc": 1015,
      "áĬłáĪĪáīĥ": 1016,
      "Ġpr": 1017,
      "áĬ½áĪĿ": 1018,
      "Ġáĭ¨áĪļ": 1019,
      "ĠMe": 1020,
      "ĠJer": 1021,
      "ment": 1022,
      "áĬ«áĪħ": 1023,
      "áĪįáĬķ": 1024,
      "áĮķ": 1025,
      "ig": 1026,
      "áĪŃáĪĿ": 1027,
      "Ġbecause": 1028,
      "ount": 1029,
      "áĪĭáīµ": 1030,
      "áĬĲáįį": 1031,
      "áĭ«áĭį": 1032,
      "ĠLord": 1033,
      "áī·": 1034,
      "Ġne": 1035,
      "Ġsin": 1036,
      "áĭ°áĪµ": 1037,
      "áĬ¥áĬĽ": 1038,
      "Ġright": 1039,
      "esus": 1040,
      "áĭł": 1041,
      "áįłáįłáįłáįłáįłáįłáįłáįłáįłáįłáįłáįłáįłáįłáįłáįł": 1042,
      "ĠDavid": 1043,
      "ĠáĬķ": 1044,
      "áįłáįłáįłáįłáįłáįłáįłáįłáįłáįłáįłáįłáįłáįłáįłáįłáįłáįł": 1045,
      "áī½áĭĥ": 1046,
      "Ġgreat": 1047,
      "Ġpri": 1048,
      "áĬ¨áįį": 1049,
      "Ġpla": 1050,
      "áĬµ": 1051,
      "áĬłáĭµáĪŃ": 1052,
      "áĭŃáĪħáĬķ": 1053,
      "áĪĿáĬĵ": 1054,
      "ry": 1055,
      "un": 1056,
      "áĭĸ": 1057,
      "áĬŃáīµ": 1058,
      "áĭĵáĪĪáĪĿ": 1059,
      "áĭŃáĪģ": 1060,
      "áĭµáĪĿ": 1061,
      "áĭĥáĪĭ": 1062,
      "Ġif": 1063,
      "áĪĺáĮ¡": 1064,
      "Ġthese": 1065,
      "Ġpriest": 1066,
      "áĮĥ": 1067,
      "ĠJe": 1068,
      "áī£áĪªáĭ«": 1069,
      "áĭ°áĪ¨áĮĪ": 1070,
      "Ġthen": 1071,
      "Ġany": 1072,
      "áĭĪáĬķ": 1073,
      "ĠáĪį": 1074,
      "áĪĿáĪĿ": 1075,
      "ave": 1076,
      "áĬ¥áĬķáĭ²áĪģ": 1077,
      "áĮ»áĭµ": 1078,
      "Ġcommand": 1079,
      "áīłáĬ¥áĮįáĭļáĬłáī¥áĪĶáĪŃ": 1080,
      "áĭ¨áĬ¥áĪµáĪ«áĬ¤áĪį": 1081,
      "Ġevery": 1082,
      "áī½áĪĿ": 1083,
      "ĠáĪ°áĪĽ": 1084,
      "Ġlet": 1085,
      "áĪ¥áĮĭ": 1086,
      "Ġsee": 1087,
      "ish": 1088,
      "Ġex": 1089,
      "Ġmake": 1090,
      "áĬ³": 1091,
      "orn": 1092,
      "áĭŃáĪĭáĪį": 1093,
      "áĬ¹áĬķ": 1094,
      "áĪ«áīµ": 1095,
      "áĭĵáĪĺáīµ": 1096,
      "?\"": 1097,
      "áįĪáĪŃ": 1098,
      "áĪ¨áĭį": 1099,
      "ĠJud": 1100,
      "ire": 1101,
      "Ġamong": 1102,
      "áī¥áĭĻ": 1103,
      "áĪįáĪĿ": 1104,
      "Ġput": 1105,
      "Ġearth": 1106,
      "Ġyear": 1107,
      "Ġthings": 1108,
      "Ġbeen": 1109,
      "Ġplace": 1110,
      "Ġaway": 1111,
      "When": 1112,
      "ĠR": 1113,
      "oses": 1114,
      "áĮ³": 1115,
      "ate": 1116,
      "Th": 1117,
      "ren": 1118,
      "ound": 1119,
      "____": 1120,
      "Ġ(": 1121,
      "áĪķáĭĿáī¥": 1122,
      "áĬ¦": 1123,
      "Ġabout": 1124,
      "Ġun": 1125,
      "nder": 1126,
      "Ġsw": 1127,
      "Ġco": 1128,
      "ants": 1129,
      "áĬ¢áĭ¨áĪ©": 1130,
      "áī£áīµ": 1131,
      "áīħáĭ±áĪ³áĬķ": 1132,
      "ving": 1133,
      "áī¼": 1134,
      "áĬ¬": 1135,
      "áĭĪáĮĪ": 1136,
      "áĪ°áĮł": 1137,
      "ub": 1138,
      "ĠáĬ¥áĬķ": 1139,
      "áĪĺáĬ«áĬ¨": 1140,
      "áīłáī°": 1141,
      "ance": 1142,
      ".'": 1143,
      "ĠJesus": 1144,
      "Ġname": 1145,
      "Be": 1146,
      "ĠZ": 1147,
      "Ġtr": 1148,
      "áīłáĭĥáĪĭ": 1149,
      "áĬ¢áĭ¨áĪ©áĪ³áĪĮ": 1150,
      "áĬĵáīµ": 1151,
      "ĠáĪĲ": 1152,
      "ime": 1153,
      "áĭŃáĬ¾áĬĵ": 1154,
      "áĭŃáĪģáĭ³": 1155,
      "Ġcity": 1156,
      "oth": 1157,
      "áĬłáī¥": 1158,
      "áī³áĪį": 1159,
      "wn": 1160,
      "áĭįáĬķáĪĿ": 1161,
      "áĪĻáĪ´": 1162,
      "Ġpl": 1163,
      "áĭ¨áĪļáĭ«": 1164,
      "Ġeven": 1165,
      "Ġáį¢*": 1166,
      "Ġheart": 1167,
      "ace": 1168,
      "áĬķáĬķ": 1169,
      "áĬ¸": 1170,
      "ied": 1171,
      "hes": 1172,
      "Ġdis": 1173,
      "Ġgive": 1174,
      "áĪĺáĮł": 1175,
      "ile": 1176,
      "ĠáĬ¥áĬķáĭ°": 1177,
      "Ġwat": 1178,
      "alem": 1179,
      "áīłáĬł": 1180,
      "Ġoffering": 1181,
      "áĭª": 1182,
      "usalem": 1183,
      "ĠJudah": 1184,
      "áĪįáīħ": 1185,
      "áĮ½áĪĲ": 1186,
      "áĪĺáĮ¥": 1187,
      "áĪ«áĪ«": 1188,
      "áĭĭáĪŃáĭ«": 1189,
      "ĠJerusalem": 1190,
      "ther": 1191,
      "ree": 1192,
      "Ġdays": 1193,
      "ites": 1194,
      "ite": 1195,
      "áĪ«áĭĬ": 1196,
      "Ġway": 1197,
      "áĪ°áĪĭáĪĿ": 1198,
      "ations": 1199,
      "ans": 1200,
      "ĠáĬ¥áĪĿ": 1201,
      "rough": 1202,
      "áĮįáĪį": 1203,
      "ording": 1204,
      "Ġbre": 1205,
      "ĠáĪĨ": 1206,
      "Ġsh": 1207,
      "áī³áī¸áĭį": 1208,
      "áĮ¸áĪİ": 1209,
      "aught": 1210,
      "áĪĿáĪµ": 1211,
      "áĬŃáįī": 1212,
      "áĪķáĭĽ": 1213,
      "áĬ¢áĭ®": 1214,
      "Ġspe": 1215,
      "Ġáĭ¨áī°": 1216,
      "áĪķáĭĽáī¥": 1217,
      "ĠáĮĪ": 1218,
      "áĮ«": 1219,
      "Ġdes": 1220,
      "ĠMoses": 1221,
      "áī¤áī±": 1222,
      "Ġfl": 1223,
      "ĠK": 1224,
      "áĬŃáī¥áĪŃ": 1225,
      "áī»áī¸áĭį": 1226,
      "aven": 1227,
      "rought": 1228,
      "áĪ¦": 1229,
      "be": 1230,
      "ĠFor": 1231,
      "áĭ¨áĪĽ": 1232,
      "áįįáĪŃ": 1233,
      "áĮ¹": 1234,
      "áĮłáįĭ": 1235,
      "áĪĺáĪįáĬ«": 1236,
      "--": 1237,
      "They": 1238,
      "áĭĲáĭŃ": 1239,
      "áĭ¨áĬł": 1240,
      "áĪĺáĬ«áĬ¨áĪį": 1241,
      "gy": 1242,
      "áīłáĪĭ": 1243,
      "áĬ¨áĬĲ": 1244,
      "ĠAb": 1245,
      "Ġthrough": 1246,
      "áĭĪáĭŃáĪĿ": 1247,
      "ĠáĪĽ": 1248,
      "Ġbu": 1249,
      "Ġbrought": 1250,
      "áĮįáĪ¥": 1251,
      "ĠáīĢáĬķ": 1252,
      "Ġaccording": 1253,
      "Ġro": 1254,
      "áĭ¨áĪ°": 1255,
      "áĬ¹áĪĪáīµ": 1256,
      "áī³áĪĭáīħ": 1257,
      "gypt": 1258,
      "áī³áĭį": 1259,
      "Ġcall": 1260,
      "ĠEgypt": 1261,
      "áĪ¥áĭĭ": 1262,
      "ph": 1263,
      "Ġrem": 1264,
      "áĪŃáĪ·": 1265,
      "áĪ°áĭŃ": 1266,
      "Ġprop": 1267,
      "áĬ¹áĪĪ": 1268,
      "Ġgi": 1269,
      "ĠF": 1270,
      "áĭįáĪĥ": 1271,
      "áĮįáī¥áĮ½": 1272,
      "áĬŃáĪŃ": 1273,
      "round": 1274,
      "Ġper": 1275,
      "áĪĪáĪĺ": 1276,
      "áĮłáī¥": 1277,
      "áĪľáĬķ": 1278,
      "áĬłáĪĭ": 1279,
      "áĪŃáī£": 1280,
      "áĭ²áĪħ": 1281,
      "áĪµáĪĪáĭļáĪħ": 1282,
      "áĪĭáĬ¥": 1283,
      "áīłáĭ°": 1284,
      "áĪĽáĪį": 1285,
      "dom": 1286,
      "áĬ¥áĮįáĭļáĬłáī¥áĪĶáĪŃáĬķ": 1287,
      "Ġwhom": 1288,
      "áĬ¥áĬķáĮį": 1289,
      "Ġáĭį": 1290,
      "Ġtake": 1291,
      "áīłáĪ©": 1292,
      "áĪ¨áĬ¨": 1293,
      "áīłáĪĿ": 1294,
      "áĪĮáĪĭ": 1295,
      "Ġsays": 1296,
      "ts": 1297,
      "Ġsent": 1298,
      "Ġeat": 1299,
      "ĠJo": 1300,
      "Ġwould": 1301,
      "áĪµáįįáĪ«": 1302,
      "áĪº": 1303,
      "áĬĴ": 1304,
      "áī°áĬĵáĮĪ": 1305,
      "áĭ´áīµ": 1306,
      "HE": 1307,
      "Ġwr": 1308,
      "áĭĪáĪĪ": 1309,
      "áĪĭáĪĪ": 1310,
      "áĬĺ": 1311,
      "oke": 1312,
      "áĪĺáĪ°": 1313,
      "Ġgood": 1314,
      "Ġáīħáĭ±áĪµ": 1315,
      "here": 1316,
      "áĪĺáĪ¥áĭĭ": 1317,
      "ĠBut": 1318,
      "áī£áĪį": 1319,
      "ĠáĪĺáĬķ": 1320,
      "áĬ¥áĬķáĮĤ": 1321,
      "Ġafter": 1322,
      "Ġfo": 1323,
      "There": 1324,
      "áīłáĪĽ": 1325,
      "Ġset": 1326,
      "Ġang": 1327,
      "ĠáĬĲáĭį": 1328,
      "áĪ³áĭŃ": 1329,
      "ward": 1330,
      "áĪĢ": 1331,
      "Ġapp": 1332,
      "itt": 1333,
      "ass": 1334,
      "Ġunder": 1335,
      "ĠáĬĲ": 1336,
      "áī³áīµ": 1337,
      "Ġbring": 1338,
      "Ġtwo": 1339,
      "Ġen": 1340,
      "áĪĺáī¶": 1341,
      "áĮĪáĬĵ": 1342,
      "ĠáĪģáĪī": 1343,
      "áĪįáī¥": 1344,
      "áĬ¥áĬĶáĪĿ": 1345,
      "ru": 1346,
      "Ġáį": 1347,
      "Ġcl": 1348,
      "áĭŀ": 1349,
      "ĠáĬłáĭĺ": 1350,
      "Ġtook": 1351,
      "Ġca": 1352,
      "áĬłáĭŃáĭ°": 1353,
      "Ġheaven": 1354,
      "áĪĪáĪĽ": 1355,
      "áĮĭáĬĵ": 1356,
      "irit": 1357,
      "ĠáĪĬ": 1358,
      "áĬķáĭ«": 1359,
      "selves": 1360,
      "ĠáīłáĬ": 1361,
      "Ġown": 1362,
      "áīħáĪŃ": 1363,
      "Ġgl": 1364,
      "áĭĪáĭ³": 1365,
      "Ġnor": 1366,
      "eous": 1367,
      "áīĢáĪ¨": 1368,
      "urned": 1369,
      "ign": 1370,
      "Ġspeak": 1371,
      "Ġthan": 1372,
      "áī¥áĪį": 1373,
      "áĪ«áī¸áĭį": 1374,
      "áĪĺáĬķáįĪáĪµ": 1375,
      "ĠáĪķ": 1376,
      "áĬ¥áĬĲáĪŃáĪ±áĪĿ": 1377,
      "Ġwork": 1378,
      "Ġ*": 1379,
      "áĭŃáĬ¾áĬĵáĪį": 1380,
      "Ġent": 1381,
      "áĬĢáĮ¢áĬł": 1382,
      "Ġtime": 1383,
      "áĪĽáĪ¨": 1384,
      "áĬłáĪ³": 1385,
      "áĬłáĪĭáī¸áĭį": 1386,
      "áĪŃáĭ«áĪĿ": 1387,
      "Ġwom": 1388,
      "irst": 1389,
      "ĠáĪĪáĭĺ": 1390,
      "igh": 1391,
      "áīłáĭļ": 1392,
      "áĪĪáĬķ": 1393,
      "áĭĲáĪĿ": 1394,
      "áīłáĪļ": 1395,
      "ag": 1396,
      "áĪĪáĭĵáĪĪáĪĿ": 1397,
      "áĬ¾áĬĳ": 1398,
      "áĮ»áįĪ": 1399,
      "ĠáĭĺáĬķáĭµ": 1400,
      "áĪŃáĬ©": 1401,
      "aid": 1402,
      "áĪ©áīµ": 1403,
      "áĬ¥áĬĲáĭļáĪħ": 1404,
      "áĮĵ": 1405,
      "áīłáī³": 1406,
      "ĠAs": 1407,
      "áĪĪáĬ¥áĮįáĭļáĬłáī¥áĪĶáĪŃ": 1408,
      "ĠáĪ°": 1409,
      "Ġgra": 1410,
      "áĪ°áĪĽáĭŃ": 1411,
      "cla": 1412,
      "áĪĺáĪ¨": 1413,
      "áĪĺáĬķáĮĪáĭµ": 1414,
      "aul": 1415,
      "ci": 1416,
      "áįĥ": 1417,
      "áĬĳáĪĿ": 1418,
      "Ġbrother": 1419,
      "Ġbehold": 1420,
      "ĢáĪ«": 1421,
      "áĭ«áĭ°áĪŃ": 1422,
      "áĬ¢áĭ¨áĪ©áĪ³áĪĮáĪĿ": 1423,
      "00": 1424,
      "áĮĪáī¥": 1425,
      "Ġheard": 1426,
      "Ġnow": 1427,
      "áĪ¥áĪŃ": 1428,
      "áĭĲáĪ¥áĪ«": 1429,
      "ĠCh": 1430,
      "mb": 1431,
      "áĬ¥áĪĭ": 1432,
      "áĪµáĭµ": 1433,
      "ĠáīłáĬĭ": 1434,
      "áī£áī¸áĭį": 1435,
      "ever": 1436,
      "ress": 1437,
      "Ġrighteous": 1438,
      "ty": 1439,
      "led": 1440,
      "áī¥áĪŃáĪĥ": 1441,
      "ĠSo": 1442,
      "ob": 1443,
      "Ġother": 1444,
      "umb": 1445,
      "ĠáĬłáī£": 1446,
      "Ġev": 1447,
      "cri": 1448,
      "Ġdest": 1449,
      "áĮģ": 1450,
      "áĭ«áĪį": 1451,
      "áī¸áĭĭ": 1452,
      "Ġke": 1453,
      "áĬķáĪµ": 1454,
      "áĪ°áĮ£": 1455,
      "Ġfore": 1456,
      "áĮłáĪ«": 1457,
      "ĠáĪµáĪĪ": 1458,
      "Ġbel": 1459,
      "áī¤áī°": 1460,
      "ntil": 1461,
      "ple": 1462,
      "ĠChr": 1463,
      "ue": 1464,
      "áĬ¥áĬĲáĪŃáĪ±": 1465,
      "áĪ«áĪ±": 1466,
      "Ġáī¥áĭĻ": 1467,
      "áĮīáī£": 1468,
      "Ġdaught": 1469,
      "áįħ": 1470,
      "áįĢ": 1471,
      "áĬŃáĬķáĭµ": 1472,
      "ĠáīłáĬĭáĪĭ": 1473,
      "Ġbo": 1474,
      "Ġpre": 1475,
      "áīĦ": 1476,
      "áĪµáī°": 1477,
      "áĮĪáĪŃ": 1478,
      "áī£áĪĪ": 1479,
      "áĭİáī½áĪĿ": 1480,
      "áĪı": 1481,
      "Ġey": 1482,
      "Ġmight": 1483,
      "Ġlife": 1484,
      "Ġwords": 1485,
      "row": 1486,
      "Ġcha": 1487,
      "áĭĪáĬķáĭµáĪŀ": 1488,
      "Ġfire": 1489,
      "Ġfirst": 1490,
      "for": 1491,
      "áĬ¥áĮħáĮį": 1492,
      "áĭįáĬĵ": 1493,
      "áīĢáĭµ": 1494,
      "áĮīáī£áĬ¤": 1495,
      "áĭĶ": 1496,
      "áĭ®áĪµ": 1497,
      "áīłáĭļáĭ«áĪĿ": 1498,
      "ink": 1499,
      "ack": 1500,
      "Ġfe": 1501,
      "áįįáĪ¬": 1502,
      "Ġdel": 1503,
      "áĪķáĭŃáĭĪ": 1504,
      "Ġupon": 1505,
      "ng": 1506,
      "ĠáĬ¥áĬĵ": 1507,
      "ning": 1508,
      "áĬłáĪŃ": 1509,
      "Ġhead": 1510,
      "ĠáĭĪáĪĪáĭĺ": 1511,
      "aw": 1512,
      "ĠáĪĿáĪµ": 1513,
      "áĬĥ": 1514,
      "áĬ¨áĪ«": 1515,
      "Ġrep": 1516,
      "áĪĨáĬĲ": 1517,
      "áĬłáĪķáĭĽáī¥": 1518,
      "Ġsaw": 1519,
      "Ġdoes": 1520,
      "oice": 1521,
      "ence": 1522,
      "ful": 1523,
      "Ġgave": 1524,
      "áīĨáī¥": 1525,
      "áīłáĪĿáĭµáĪŃ": 1526,
      "Ġcan": 1527,
      "ĠáĬłáĪ¨": 1528,
      "ĠChrist": 1529,
      "Ġjust": 1530,
      "áĬķáĮīáĪ¡áĪĿ": 1531,
      "áĪĪáĪļ": 1532,
      "Ġbecame": 1533,
      "ities": 1534,
      "ne": 1535,
      "ze": 1536,
      "áĮĪáĭ°": 1537,
      "áī°áĬĽáĭį": 1538,
      "áĪĺáĪįáĬ«áĪĿ": 1539,
      "áĭķáīĨáī¥": 1540,
      "Ġmany": 1541,
      "Ġyears": 1542,
      "ĠAm": 1543,
      "áīħáĪĿ": 1544,
      "áĬ¾áĬĲáĭį": 1545,
      "ĠTHE": 1546,
      "Behold": 1547,
      "If": 1548,
      "ft": 1549,
      "áĪĺáĬĵ": 1550,
      "Ġstand": 1551,
      "áĬĲáĬĿ": 1552,
      "áī³áī½áĬ¹": 1553,
      "áī¢áĭ«áīµ": 1554,
      "áĮĨ": 1555,
      "áĪ¾": 1556,
      "áĭ³áĭĬáīµ": 1557,
      "áĬ¢áĭ«": 1558,
      "Ġdr": 1559,
      "ĠáīłáĬ¥": 1560,
      "ried": 1561,
      "áĮĪáī¡": 1562,
      "áĪĺáĪ¥áĭĭáĭķáīµ": 1563,
      "Ġcalled": 1564,
      "te": 1565,
      "Ġáĭķ": 1566,
      "amp": 1567,
      "Ġfathers": 1568,
      "áįĪáĪ¨": 1569,
      "Ġrest": 1570,
      "Ġuntil": 1571,
      "áīĭ": 1572,
      "áĬ¥áĬķáĭ³áĭŃ": 1573,
      "sw": 1574,
      "áĮ®": 1575,
      "áĪĿáĪ®": 1576,
      "Ġsu": 1577,
      "áĬ¥áĬķáĮįáĭ²áĪħ": 1578,
      "ĠáĪµ": 1579,
      "hild": 1580,
      "áĪ®áĪµ": 1581,
      "áĪĺáĭį": 1582,
      "áĪ°áĪĿ": 1583,
      "áĪºáĪķ": 1584,
      "áĬłáĭį": 1585,
      "áĪĪáĪĿáĬķ": 1586,
      "Ġjud": 1587,
      "Ġevil": 1588,
      "are": 1589,
      "áĪĺáĬĲ": 1590,
      "outh": 1591,
      "áī¥áīµ": 1592,
      "ĠLe": 1593,
      "ĠThey": 1594,
      "áīĥáĬķ": 1595,
      "áī°áĬĲ": 1596,
      "Ġgiven": 1597,
      "Ġlong": 1598,
      "Ġret": 1599,
      "áĭĭáĪŃáĭ«áīµ": 1600,
      "Ġbecome": 1601,
      ",\"": 1602,
      "áĬĸáī½": 1603,
      "áĪĺáĬķáĮįáĪ¥": 1604,
      "Ġspoke": 1605,
      "áĭļáĭ«áĪĿ": 1606,
      "áĭ¨áĬ¥áĮįáĭļáĬłáī¥áĪĶáĪŃáĬķ": 1607,
      "Ġansw": 1608,
      "Ġgold": 1609,
      "Ġhands": 1610,
      "áĬ¥áĬķáĭ²áĪħáĪĿ": 1611,
      "cked": 1612,
      "áĮłáĪĭ": 1613,
      "áī±áĬķáĪĿ": 1614,
      "áĬŃáĪŃáĪµáī²": 1615,
      "ull": 1616,
      "ory": 1617,
      "Ġdone": 1618,
      "áĬłáĮĪáĪŃ": 1619,
      "oin": 1620,
      "Ġpres": 1621,
      "áī£áĪķ": 1622,
      "áĬłáī¤áī±": 1623,
      "áĬĸáĪµ": 1624,
      "áĭįáĬĲáīµ": 1625,
      "Ġchild": 1626,
      "áĭ°áĭį": 1627,
      "Thus": 1628,
      "Ġprophe": 1629,
      "ĠáĮĭ": 1630,
      "áĪĺáĪŃ": 1631,
      "Ġnations": 1632,
      "ield": 1633,
      "áĭĽáĪ¬": 1634,
      "Ġholy": 1635,
      "áīłáĬ¥áĪµáĪ«áĬ¤áĪį": 1636,
      "ors": 1637,
      "Ġwater": 1638,
      "ham": 1639,
      "ars": 1640,
      "att": 1641,
      "ĠáĪ°áī£": 1642,
      "áį©": 1643,
      "ĠEl": 1644,
      "áĪ¹": 1645,
      "áīłáĮİ": 1646,
      "áĬ¥áĬķáĭ°áĪļ": 1647,
      "áīłáĪī": 1648,
      "áīłáįĬ": 1649,
      "áĬĢáĮ¢áĬłáīµ": 1650,
      "Therefore": 1651,
      "áĭĪáĪ°": 1652,
      "áīĥáĮł": 1653,
      "áĬĲáĭįáĬĵ": 1654,
      "áĭ¨áĪĿáīµ": 1655,
      "áĪĭáĬ¥áĬŃáīµ": 1656,
      "áĪĿáĪŃ": 1657,
      "áī¥áĪĭ": 1658,
      "áĪ°áĮ¥": 1659,
      "Ġáīłáĭĵ": 1660,
      "áĪ«áĭĬáīµ": 1661,
      "áīº": 1662,
      "Ġhar": 1663,
      "ĠBe": 1664,
      "ond": 1665,
      "hab": 1666,
      "ĠáĬłáĪľáĬķ": 1667,
      "Ġra": 1668,
      "áįĪáĪ«": 1669,
      "áĬ»áĪĪáĬ¹": 1670,
      "az": 1671,
      "áī¶áī»": 1672,
      "ĠáĭŃáĪħ": 1673,
      "Ġfa": 1674,
      "Ġeach": 1675,
      "áĪĵ": 1676,
      "áī¸áĭĭáĪį": 1677,
      "áīħáĭµ": 1678,
      "roy": 1679,
      "áĮįáī£": 1680,
      "áĬĽáĭį": 1681,
      "áĬłáĪĿáĪĭáĬ«": 1682,
      "áĬłáĬķáĭ±": 1683,
      "ĠáĪĿáĪµáĮĭáĬĵ": 1684,
      "ase": 1685,
      "áĪĺáīħ": 1686,
      "áĪŀáīµ": 1687,
      "áĮ»áĭµáīĥáĬķ": 1688,
      "ces": 1689,
      "Ġmore": 1690,
      "Ġdestroy": 1691,
      "Ġbeg": 1692,
      "áĬ¥áĭĽ": 1693,
      "áī°áĪŃ": 1694,
      "Ġfound": 1695,
      "Ġalt": 1696,
      "áīłáĭį": 1697,
      "alk": 1698,
      "Ġdeath": 1699,
      "ĠáĪĨáĭŃ": 1700,
      "Ġwhere": 1701,
      "áĭĺáĭį": 1702,
      "Ġblood": 1703,
      "áįª": 1704,
      "áīłáīµáĬķ": 1705,
      "áĭĪáĮ¡": 1706,
      "áįįáĪį": 1707,
      "Ġwicked": 1708,
      "Ġsword": 1709,
      "áĬĸáĪŃ": 1710,
      "get": 1711,
      "áī°áĪ«áĪ«": 1712,
      "áĬ¨áĪŃáĪ±": 1713,
      "Ġcities": 1714,
      "áīħáĬķ": 1715,
      "áįĪáĮ½": 1716,
      "Ġáīħáĭ±áĪ³áĬķ": 1717,
      "áįĮ": 1718,
      "Ġservants": 1719,
      "less": 1720,
      "und": 1721,
      "áĭĪáĪµ": 1722,
      "áī¹áĪĿ": 1723,
      "Ġáī°áīĢ": 1724,
      "áĭĪáĮ¥": 1725,
      "áĪ¨áī¥": 1726,
      "It": 1727,
      "áĪłáĭĬ": 1728,
      "Ġdecla": 1729,
      "áĭĪáĪĪáĭ°": 1730,
      "áĭ«áĭķáīĨáī¥": 1731,
      "áĭĺáĪĺáĬķ": 1732,
      "ĠáĪ¨": 1733,
      "áĬ¥áĪĪ": 1734,
      "Ġfam": 1735,
      "ĠShe": 1736,
      "Do": 1737,
      "áī³áĪµ": 1738,
      "Ġanother": 1739,
      "Ġeyes": 1740,
      "áį«": 1741,
      "ĠáĪµáĪĿ": 1742,
      "áĭĽáīµ": 1743,
      "áĬłáĮł": 1744,
      "Ġtre": 1745,
      "áĭµáĬķáĮĭ": 1746,
      "Ġim": 1747,
      "áīĢáĭ°": 1748,
      "áĬĸáĪ©": 1749,
      "áĪ¦áĪµáīµ": 1750,
      "áĭĳ": 1751,
      "áīłáĭ³": 1752,
      "áĪĽáĪŃ": 1753,
      "áī¿": 1754,
      "Ġservant": 1755,
      "iv": 1756,
      "áīłáĪĪ": 1757,
      "Ġsil": 1758,
      "áĭİáī½áĬķ": 1759,
      "áĭ®áĪĲ": 1760,
      "áĬ»áĪį": 1761,
      "Ġáīĥ": 1762,
      "Ġend": 1763,
      "áĪįáĭµ": 1764,
      "Ġsome": 1765,
      "lean": 1766,
      "ND": 1767,
      "Ġsc": 1768,
      "áĪ®áī½": 1769,
      "áī½áĭĥáĪĪáĬ¹": 1770,
      "Ġsl": 1771,
      "Ġord": 1772,
      "Ġtent": 1773,
      "áĬ¥áĬķáĭµ": 1774,
      "ions": 1775,
      "ĠáĬ¥áĪµáĬ¨": 1776,
      "ĠáĪĺáĬķáįĪáĪµ": 1777,
      "áĬ¨áĪļ": 1778,
      "áĬ¥áĬĵáĬķáī°áĪĿ": 1779,
      "cause": 1780,
      "Ġstr": 1781,
      "áĬĻ": 1782,
      "áĭ«áĬķáĪĿ": 1783,
      "ened": 1784,
      "the": 1785,
      "ough": 1786,
      "eth": 1787,
      "hil": 1788,
      "ĠáĪŃ": 1789,
      "áĪ°áī¥": 1790,
      "ated": 1791,
      "áĪŀáī°": 1792,
      "oss": 1793,
      "Ġpriests": 1794,
      "áĪ³áī¸áĭį": 1795,
      "Ġbless": 1796,
      "áĬ¨áĬķ": 1797,
      "áĮ½áĭµ": 1798,
      "áĪ¨áīµ": 1799,
      "Ġtri": 1800,
      "áīłáĭ¨": 1801,
      "áīłáīĢ": 1802,
      "its": 1803,
      "áįĪáĪ©": 1804,
      "áīłáĭļáĪħ": 1805,
      "áī½áĭį": 1806,
      "Ġáįį": 1807,
      "Ġad": 1808,
      "áīłáĮį": 1809,
      "áĬłáĬŃ": 1810,
      "áī½áĬķáĪĿ": 1811,
      "áĬłáĭ°áĪ¨áĮĪ": 1812,
      "Ġbur": 1813,
      "áĪ¯": 1814,
      "Ġcont": 1815,
      "OD": 1816,
      "ĠáĬ¥áĬķáĭ²": 1817,
      "áĬĢáĭŃ": 1818,
      "áĭ³áĭĬáīµáĪĿ": 1819,
      "áĬĵáĮįáĪį": 1820,
      "áĬ¨áīłáĪ¨": 1821,
      "Ġarm": 1822,
      "áĪ³áĬ¦": 1823,
      "Ġlive": 1824,
      "Ġdrink": 1825,
      "ĠáĪĭáĭŃ": 1826,
      "áĭŃáĪĿ": 1827,
      "Ġhimself": 1828,
      "áĬ¼áĭ°": 1829,
      "ap": 1830,
      "áĭŃáĬ¹áĬķ": 1831,
      "ished": 1832,
      "ort": 1833,
      "áĮ½áĪĲáįį": 1834,
      "As": 1835,
      "ĠáĪįáĮħ": 1836,
      "áĪĿáĭµ": 1837,
      "áĬĳáĪŃ": 1838,
      "áĪ´áī¶áī½": 1839,
      "áĬ¨áīµ": 1840,
      "Ġbet": 1841,
      "áĮĮáī³áī½áĬķ": 1842,
      "able": 1843,
      "áĮĪáĪ¨": 1844,
      "áĪĭáĪĪáĪĻ": 1845,
      "áĪįáįį": 1846,
      "áĬ¥áĬķáĮĢáĪ«": 1847,
      "áĬłáĪĪáīĥáĭİáī½": 1848,
      "ĠáĪĪáĭĺáĪĭáĪĪáĪĻ": 1849,
      "áĮĢ": 1850,
      "áĬ¥áĪµáĬª": 1851,
      "ĠáĮĭáĪ«": 1852,
      "áĪĪáĬĽ": 1853,
      "áĪµáĬĵ": 1854,
      "áĪĪáĬł": 1855,
      "ird": 1856,
      "áīłáĪ«": 1857,
      "Ġhear": 1858,
      "ĠáīłáĪ¨áĬ¨": 1859,
      "áĪĽáĪ¨áĬķ": 1860,
      "ĠáĮĭáĪŃ": 1861,
      "áī¦áī³": 1862,
      "Ġlook": 1863,
      "áĮ¸áĪİáīµ": 1864,
      "ountain": 1865,
      "áĬĵáĪį": 1866,
      "áĪĪáĭĺáĪĪáĭĵáĪĪáĪĿ": 1867,
      "ĠáĪ°áĪĽáĭķáīµ": 1868,
      "sp": 1869,
      "áĭĪáĪŃáīħ": 1870,
      "Ġkeep": 1871,
      "ĠáĮ¸": 1872,
      "áĭ¨áĪĺ": 1873,
      "Ġcommanded": 1874,
      "áĭĪáĮĪáĬķ": 1875,
      "Ġfaith": 1876,
      "Ġáī³": 1877,
      "áĬ¡": 1878,
      "áĬ¨áĪĺ": 1879,
      "ised": 1880,
      "áĬ¼áĭ±": 1881,
      "Ġleft": 1882,
      "áī°áĪĺáĪĪ": 1883,
      "áĭ«áĪ³": 1884,
      "áĭĪáĪ¨": 1885,
      "Ġgod": 1886,
      "áī½áĬ¹áĪĿ": 1887,
      "Ġvoice": 1888,
      "áīįáĪŃáī£": 1889,
      "áĪįáĮģ": 1890,
      "áĬ¥áĬķáĭ²áĪģáĪĿ": 1891,
      "Ġwalk": 1892,
      "uth": 1893,
      "ĠáĭŃáĪĽáĪ¨áĬķ": 1894,
      "áīįáĮ£": 1895,
      "Ġáĭ°áĬĵáĮįáĪį": 1896,
      "Ġaltar": 1897,
      "áĪµáĪĻ": 1898,
      "Ġcar": 1899,
      "áĬ½áĬķáĪĿ": 1900,
      "áĮ»áĭµáīħ": 1901,
      "Ġback": 1902,
      "ĠáĪĺáĪį": 1903,
      "Ġunc": 1904,
      "hu": 1905,
      "mon": 1906,
      "áĮ¥áĪŃ": 1907,
      "Ġkingdom": 1908,
      "áīłáī¥": 1909,
      "Ġwar": 1910,
      "Ġpass": 1911,
      "áĪŀáĬķ": 1912,
      "ĠGOD": 1913,
      "Ġseven": 1914,
      "acob": 1915,
      "áĭłáĪĿáĪ®": 1916,
      "ĠáĮįáĬķ": 1917,
      "ary": 1918,
      "OU": 1919,
      "ĠáĬĲáīłáĪŃ": 1920,
      "áīłáĭĵ": 1921,
      "ĠSaul": 1922,
      "urely": 1923,
      "ments": 1924,
      "ĠLev": 1925,
      "áĪįáĬĿ": 1926,
      "Ġmouth": 1927,
      "áĪ°áī£áīµ": 1928,
      "áīµáĬ¥áĭĽ": 1929,
      "Ġsight": 1930,
      "áĪ°áīłáĪ°": 1931,
      "áī³áī½áĬķ": 1932,
      "áĬłáĬķáīł": 1933,
      "Ġshould": 1934,
      "áĬº": 1935,
      "áĬłáĪī": 1936,
      "Ġmid": 1937,
      "Ġthree": 1938,
      "illed": 1939,
      "Ġtak": 1940,
      "cer": 1941,
      "ps": 1942,
      "áĪĪáĭŃ": 1943,
      "áĮĪáĭĽ": 1944,
      "áīĢáīµ": 1945,
      "áī½áĬ¹áĬķ": 1946,
      "ock": 1947,
      "áĬłáĭ°áĪ¨": 1948,
      "Ġhow": 1949,
      "áĭµáĬķáĬ³": 1950,
      "áĪĿáĪ«": 1951,
      "Ġold": 1952,
      "áī³áĭ°áĪŃ": 1953,
      "áįĭáīµ": 1954,
      "áĭĺáĬķ": 1955,
      "Ġwoman": 1956,
      "Ġsou": 1957,
      "ĠáīµáĮī": 1958,
      "áĭµáĪĿáįħ": 1959,
      "In": 1960,
      "Ġhigh": 1961,
      "ĠáīłáĭĵáĪĭáīµ": 1962,
      "áĪįáįĪ": 1963,
      "ĠáĬłáĪµ": 1964,
      "áĪŃáĪ·áĪĿ": 1965,
      "##": 1966,
      "age": 1967,
      "ĠáĬ¥áĪĿáĬ¥áĪĪ": 1968,
      "áį¬": 1969,
      "áĭŃáīĢ": 1970,
      "Ġfall": 1971,
      "áĭĺáĮĭ": 1972,
      "áĭķáīĥ": 1973,
      "Ġáį¥": 1974,
      "Ġmountain": 1975,
      "Ġwife": 1976,
      "áĭ¶áī½": 1977,
      "ĠáĭįáĪµáĮ¥": 1978,
      "áĬ¨áī¥": 1979,
      "áī³áĪ°": 1980,
      "ĠáĬłáĬ¥áĪĭ": 1981,
      "áĪĥáĬķ": 1982,
      "gether": 1983,
      "Ġside": 1984,
      "ĠáĪĺáī£": 1985,
      "áĪ´áīµ": 1986,
      "ĠáĪ°áĪĽáĭķ": 1987,
      "Ġqu": 1988,
      "áī³áĬķ": 1989,
      "áĪĽáĬķáĪĿ": 1990,
      "ick": 1991,
      "áĬĲáĮĪáĪ¥": 1992,
      "ĠPha": 1993,
      "áĪķáĭŃáĭĪáīµ": 1994,
      "ĠY": 1995,
      "Ġgu": 1996,
      "áĬªáĭ«áĬķ": 1997,
      "Ġáī£áĪŃáĬ©": 1998,
      "ĠáĮ³": 1999,
      "áīłáĭĻ": 2000,
      "ines": 2001,
      "áī¥áī»": 2002,
      "Ġhost": 2003,
      "ĠáĪ°áī£áĬªáĭ«áĬķ": 2004,
      "ĠáīµáĮīáĪĥáĬķ": 2005,
      "aron": 2006,
      "ĠJacob": 2007,
      "áĬĸáĪ¨": 2008,
      "ction": 2009,
      "áĪĶ": 2010,
      "áīłáĪŃáĪ±": 2011,
      "áĪ«áĪµ": 2012,
      "áĭĲáĭį": 2013,
      "Ġwhile": 2014,
      "áĭ«áĪī": 2015,
      "áĪ«áĬķ": 2016,
      "áĬ°áĪ³áīµ": 2017,
      "ix": 2018,
      "Ġfour": 2019,
      "áĭ³áĪŃ": 2020,
      "Ġglory": 2021,
      "Ġch": 2022,
      "áīĥáĪī": 2023,
      "ai": 2024,
      "áĮ¾": 2025,
      "áĪ©áĪĿ": 2026,
      "áĪĮáĪĬ": 2027,
      "áĮĪáĪį": 2028,
      "ĠáĬłáĪĿáĪĭ": 2029,
      "Ġpeace": 2030,
      "Ġdeclares": 2031,
      "áĬłáī³": 2032,
      "áĬłáĬ¹áĬķ": 2033,
      "áĪķáĮį": 2034,
      "áĬĸáĪ«": 2035,
      "áĪģáĬķ": 2036,
      "ĠThen": 2037,
      "Ġlaw": 2038,
      "áĭķáĭĿ": 2039,
      "oh": 2040,
      "Ġface": 2041,
      "Ġfield": 2042,
      "What": 2043,
      "Ġsec": 2044,
      "Ġlove": 2045,
      "Let": 2046,
      "eb": 2047,
      "ws": 2048,
      "Ġtogether": 2049,
      "áĮłáĪŃ": 2050,
      "ĠáĬłáĬķ": 2051,
      "Ġsacri": 2052,
      "ilt": 2053,
      "Ġjudg": 2054,
      "Ġsacrif": 2055,
      "áĬłáĭ¨": 2056,
      "áĭķáĬķ": 2057,
      "ĠáĬ¨áĬ¥áĬĽ": 2058,
      "áĭ«áĪĿ": 2059,
      "áĬĽáĪį": 2060,
      "Ġthemselves": 2061,
      "áĬĲáīłáĪŃáĬĵ": 2062,
      "áĬ©áĪį": 2063,
      "Ġfear": 2064,
      "hing": 2065,
      "ia": 2066,
      "áįĪáĪį": 2067,
      "áĬ¥áĬķáĪĨáĪĿ": 2068,
      "ossess": 2069,
      "áĬ¨áĬł": 2070,
      "Ġwild": 2071,
      "ĠAaron": 2072,
      "Ġturn": 2073,
      "áĭ¨áĪĪáĪĿ": 2074,
      "áĪĺáĭµ": 2075,
      "áĬĲáĮį": 2076,
      "ĠPhil": 2077,
      "áį£": 2078,
      "áī°áĭĭ": 2079,
      "áĮĪáĬĺ": 2080,
      "áįłáįłáįłáįłáįłáįł": 2081,
      "Ġanswered": 2082,
      "ĠáĭĲ": 2083,
      "áīłáĭĽ": 2084,
      "áĭ¨áīĢ": 2085,
      "ĠSp": 2086,
      "isten": 2087,
      "áĭĪáĬķáĮĮ": 2088,
      "This": 2089,
      "!\"": 2090,
      "áīłáĪµ": 2091,
      "Ġnight": 2092,
      "Ġwithout": 2093,
      "áĪķáĭĿáī¡áĪĿ": 2094,
      "hy": 2095,
      "ĠáĮ¥": 2096,
      "áĭ«áĬķáĭ³áĬķ": 2097,
      "Ġchildren": 2098,
      "Ġspirit": 2099,
      "áĭİáī¹áĪĿ": 2100,
      "áī£áĪķáĪŃ": 2101,
      "ĠáĬŃáĪŃáĪµáī²": 2102,
      "áĭŃáĪįáīħ": 2103,
      "áĬ¨áĭļáĪħáĪĿ": 2104,
      "áī£áĭŃ": 2105,
      "Ġsea": 2106,
      "áĬ»áĭ«": 2107,
      "Ġenem": 2108,
      "Ġforever": 2109,
      "ĠáįĪ": 2110,
      "áĪĿáīµ": 2111,
      "read": 2112,
      "áĪĭáĬķ": 2113,
      "áĪļáĪµ": 2114,
      "els": 2115,
      "áĪĻáĪŃ": 2116,
      "áĬĵáĮĪáĪŃ": 2117,
      "iz": 2118,
      "Ġtem": 2119,
      "Ġyoung": 2120,
      "Ġsilver": 2121,
      "ost": 2122,
      "áĭ°áĪĿ": 2123,
      "Ġcut": 2124,
      "Ġrece": 2125,
      "stand": 2126,
      "áī½áĭĥáĪį": 2127,
      "Ġcapt": 2128,
      "áĬ¥áĭ¨": 2129,
      "áĪµáī°áĬĽ": 2130,
      "áĪĭáĬ¨": 2131,
      "áĭĺáĪŃ": 2132,
      "áĬĿáĪĿ": 2133,
      "áįŁáį¡": 2134,
      "LL": 2135,
      "Ġtoward": 2136,
      "Ġmother": 2137,
      "áĪ¨áĮĪ": 2138,
      "áįĭáĬķ": 2139,
      "áĬłáĭŃáĪģ": 2140,
      "áĬ¢áĭ¨áĪ±áĪµáĪĿ": 2141,
      "lesh": 2142,
      "Ġaround": 2143,
      "Ġflesh": 2144,
      "áĭĸáĬķ": 2145,
      "áī°áĪĽ": 2146,
      "áĬ¹áĬķáĪĿ": 2147,
      "ark": 2148,
      "Ġgat": 2149,
      "áĮ¥áĬķ": 2150,
      "áĬĽáĭİáī½": 2151,
      "áĪĺáĬķáĮĪ": 2152,
      "áĬ¼áĭµ": 2153,
      "Ġdisci": 2154,
      "ĠSpirit": 2155,
      "áĮ§": 2156,
      "áĭįáĭ«áĬķáĪĿ": 2157,
      "Ġfamil": 2158,
      "áĭ¨áĬ¥": 2159,
      "ĠáĬłáī¥": 2160,
      "lon": 2161,
      "ĠáīĢ": 2162,
      "áĪµáįĭ": 2163,
      "Ġsho": 2164,
      "áī¥áĪĪáĭį": 2165,
      "áĪĽáĪŃáĭ«áĪĿ": 2166,
      "Ġpra": 2167,
      "ower": 2168,
      "Ġpray": 2169,
      "áĬ«áĪħáĬĵ": 2170,
      "áĪ°áĭŃáįį": 2171,
      "áĪ±áĪĿ": 2172,
      "Ġcons": 2173,
      ".'\"": 2174,
      "Ġtest": 2175,
      "áĬ¨áĬłáĬķáī°": 2176,
      "Ġcamp": 2177,
      "Ġnumb": 2178,
      "Ġcoven": 2179,
      "ove": 2180,
      "áĬ¨áĬ¥áĬĶ": 2181,
      "áĭĪáĭµ": 2182,
      "Ġdw": 2183,
      "ĠáĪĺáĬĲ": 2184,
      "áī¹áĬķ": 2185,
      "áĭĲáĪĿáĪµáīµ": 2186,
      "áī°áĬĲáĪ¥": 2187,
      "Ġcount": 2188,
      "áĭ°áĮįáĪŀáĪĿ": 2189,
      "áĬłáĮłáĮĪáī¥": 2190,
      "iver": 2191,
      "Ġ1": 2192,
      "Ġáĭµ": 2193,
      "ĠáĮ¸áĪİáīµ": 2194,
      "áīłáĭĲ": 2195,
      "áĬłáĬ¹áĬķáĪĿ": 2196,
      "Ġob": 2197,
      "hap": 2198,
      "Ġmon": 2199,
      "Ġte": 2200,
      "Ġdaughter": 2201,
      "Ġcovenant": 2202,
      "Ġrej": 2203,
      "Ġcomp": 2204,
      "áĮĪáĪĪáĮį": 2205,
      "ĠKing": 2206,
      "Ġpur": 2207,
      "Ġinc": 2208,
      "ĠáĬłáĪĪ": 2209,
      "ĠáĪĥ": 2210,
      "áĭ®áĪ´": 2211,
      "ult": 2212,
      "Ġfoll": 2213,
      "áīħáĭµáĪµáīµ": 2214,
      "áĭ®áĪĲáĬķáĪµ": 2215,
      "ret": 2216,
      "áĬ¥áĬķáĭ´áīµ": 2217,
      "áĪīáĪĿ": 2218,
      "áĭĪáĭŃáĬķ": 2219,
      "áĬ¨áī°áĪĽáĭİáī½": 2220,
      "áī¸áĭĭáĪĪáĬ¹": 2221,
      "áĭ®áĪ´áįį": 2222,
      "Ġvery": 2223,
      "áĬ¨áĪĽ": 2224,
      "ect": 2225,
      "ĠU": 2226,
      "ĠáĬ«": 2227,
      "ens": 2228,
      "ĠáĬ¨áĬ¥": 2229,
      "rom": 2230,
      "ĠáĬ": 2231,
      "áĭŃáĪ°": 2232,
      "áĭ°áīĢ": 2233,
      "áī£áī¢": 2234,
      "áĮłáĭį": 2235,
      "Ġáīłáī°": 2236,
      "als": 2237,
      "áī´áĭİ": 2238,
      "áīłáī³áī½": 2239,
      "áĪĺáĭĽ": 2240,
      "Ġcoming": 2241,
      "áĪµáĪĽ": 2242,
      "Ġop": 2243,
      "áĬ¨áĬ¥áĮįáĭļáĬłáī¥áĪĶáĪŃ": 2244,
      "áīĢáĭµáĪŀ": 2245,
      "áĬĲáī¢áĭ«áīµ": 2246,
      "Ġwell": 2247,
      "aby": 2248,
      "áĬłáĬķáĭµáĬĲáīµ": 2249,
      "ĠáĬłáĪĿáĪĭáĬŃ": 2250,
      "ared": 2251,
      "omon": 2252,
      "áĮ£áĬķ": 2253,
      "Ġonly": 2254,
      "ĠSam": 2255,
      "áī´áĬĵ": 2256,
      "olomon": 2257,
      "Ġple": 2258,
      "Ġbread": 2259,
      "áĬłáĪŃáĬ¬": 2260,
      "Ġmonth": 2261,
      "Ġpossess": 2262,
      "ĠáīłáĮ¸áĪİ": 2263,
      "áīłáĬ©áĪį": 2264,
      "áĬłáĪĿ": 2265,
      "áĪ°áĪİ": 2266,
      "áĭ¨áī°áĬĲáĪ£": 2267,
      "med": 2268,
      "áĬłáĪīáīµ": 2269,
      "Ġboth": 2270,
      "áī¢áīµ": 2271,
      "Ġhousehold": 2272,
      "________": 2273,
      "abylon": 2274,
      "een": 2275,
      "said": 2276,
      "áĪĿáĬķáĪĿ": 2277,
      "áĪŃáĭ³": 2278,
      "áī¥áĪĿ": 2279,
      "áĪĽáĮį": 2280,
      "Ġdead": 2281,
      "ĠáīµáĬĳáĪŃ": 2282,
      "undred": 2283,
      "Ġburnt": 2284,
      "ĠPhilist": 2285,
      "áī°áĪĺáĪį": 2286,
      "Ġseek": 2287,
      "Ġsoul": 2288,
      "Ġbod": 2289,
      "Ġfell": 2290,
      "Ġhundred": 2291,
      "áĬĲáĮĪáĭµ": 2292,
      "Ġgoing": 2293,
      "áĭ«áĪĪáĭįáĬķ": 2294,
      "Ġrighteousness": 2295,
      "Ġhosts": 2296,
      "ĠáĪ¥áĮĭ": 2297,
      "áĪĺáī³": 2298,
      "Ġfar": 2299,
      "ĠBabylon": 2300,
      "Ġdwell": 2301,
      "áī£áī¢áĪİ": 2302,
      "Ġinher": 2303,
      "Ġforth": 2304,
      "enty": 2305,
      "Ġspok": 2306,
      "áĪµáĮ¥áĬ¤": 2307,
      "lic": 2308,
      "áĭ¨áĪ°áĭį": 2309,
      "áĭķáĪŃ": 2310,
      "ely": 2311,
      "áĪĮáĭĭ": 2312,
      "Ġmeet": 2313,
      "Ġtherefore": 2314,
      "Ġinherit": 2315,
      "ild": 2316,
      "áĬłáĭ«": 2317,
      "áĭ¨áĬ¾áĬĲ": 2318,
      "áĬ¨áīłáĪ©": 2319,
      "erness": 2320,
      "ĠáĭŃáĪģáĬķ": 2321,
      "Ġconcer": 2322,
      "Ġdiscip": 2323,
      "áīłáĭĺ": 2324,
      "Ġsm": 2325,
      "Ġfull": 2326,
      "áīħáĪį": 2327,
      "ĠáĬłáĪį": 2328,
      "áĬ½áĪį": 2329,
      "ĠáĭĪáĬķ": 2330,
      "Ġáī¦áī³": 2331,
      "áĪĿáĮ¦": 2332,
      "ief": 2333,
      "áĬłáĭŃáĭ°áĪĪáĪĿ": 2334,
      "ointed": 2335,
      "Ġwilderness": 2336,
      "Ġspoken": 2337,
      "áĬłáĭ°": 2338,
      "áĮłáĬķ": 2339,
      "áī¡áĬķ": 2340,
      "áĭŃáĪħáĪĿ": 2341,
      "áīįáĪŃáī£áĬķ": 2342,
      "áĬķáĮĪ": 2343,
      "Ġcub": 2344,
      "áī³áĪĿ": 2345,
      "Ġdie": 2346,
      "áī¥áĪ©": 2347,
      "áī¢áĬ¾áĬķ": 2348,
      "Ġreturn": 2349,
      "áĭ¨áĬĲáīłáĪ©": 2350,
      "Ġdist": 2351,
      "áįĪáĮ¸": 2352,
      "ĠáĬĵ": 2353,
      "áī½áĮį": 2354,
      "Ġnear": 2355,
      "ĠáĪł": 2356,
      "áĬłáī£áīµ": 2357,
      "ĠáĪĬáīĢ": 2358,
      "Ġbegan": 2359,
      "Ġmidst": 2360,
      "áĬłáĭ°áĪŃ": 2361,
      "áĭ¨áĬĲáīłáĪ¨": 2362,
      "ones": 2363,
      "uch": 2364,
      "Ġbro": 2365,
      "áĮĪáĭį": 2366,
      "ĠAr": 2367,
      "raoh": 2368,
      "áĬĳáĬķ": 2369,
      "Ġbelie": 2370,
      "áī³áĪ°áī¢áĭ«": 2371,
      "Ġthus": 2372,
      "ĠáĭĪáĪŃ": 2373,
      "aces": 2374,
      "Ġkings": 2375,
      "ber": 2376,
      "áĭ¨áĭĺ": 2377,
      "ĠSolomon": 2378,
      "áĬ¨áĬ¥áĪµáĪ«áĬ¤áĪį": 2379,
      "Ġinhab": 2380,
      "ĠMan": 2381,
      "áįįáĪŃáĭµ": 2382,
      "áī½áĪģ": 2383,
      "áĬ¨áī°áĪĽáĭª": 2384,
      "áĬĲáįįáĪµ": 2385,
      "Ġfollow": 2386,
      "Ġinhabit": 2387,
      "Who": 2388,
      "oy": 2389,
      "áĮĪáĬķ": 2390,
      "áī³áī¸áĭįáĪĿ": 2391,
      "thing": 2392,
      "áĭ°áĪŃáĪµ": 2393,
      "áĬ¨áĭļáĭ«áĪĿ": 2394,
      "áĭ³áĪĿ": 2395,
      "ĠáĬłáĮĪáĪŃ": 2396,
      "ĠáĪ²": 2397,
      "Ġanger": 2398,
      "áĮ´": 2399,
      "áĭ²áĪµ": 2400,
      "attle": 2401,
      "áĪĽáĮįáĪĮ": 2402,
      "áĬ¨áĪĪ": 2403,
      "Ġbow": 2404,
      "áĭļáī½": 2405,
      "Ġgate": 2406,
      "áĮµ": 2407,
      "Ġturned": 2408,
      "Ġofferings": 2409,
      "Ġtell": 2410,
      "áĪĿáī³": 2411,
      "áĭ°áĬĲ": 2412,
      "áĭ±áĪĿ": 2413,
      "Ġkind": 2414,
      "gth": 2415,
      "áĭįáĪİ": 2416,
      "Ġlead": 2417,
      "Ġstrong": 2418,
      "áĮ²": 2419,
      "áī¥áĬķ": 2420,
      "Ġlisten": 2421,
      "áĮ¸áĬĵ": 2422,
      "áī¦áīµ": 2423,
      "ĠRe": 2424,
      "ĠáĬ¥áĬķáĭĺ": 2425,
      "itten": 2426,
      "áīłáĭļáī½áĪĿ": 2427,
      "oud": 2428,
      "Ġground": 2429,
      "ĠFather": 2430,
      "áĭ«áĪĪáĭį": 2431,
      "ĠAND": 2432,
      "áĬ¾áĬĸ": 2433,
      "áĬĲáĮĪáĪ¥áī³áīµ": 2434,
      "but": 2435,
      "Ġact": 2436,
      "ins": 2437,
      "áĭŃáĮł": 2438,
      "áĭŃáĬ¾áĬķ": 2439,
      "áĮ¥áīĤ": 2440,
      "áĭĭáĬķ": 2441,
      "Ġthr": 2442,
      "áĬĲáĮĪáĪł": 2443,
      "ĠBen": 2444,
      "Ġdev": 2445,
      "ĠTo": 2446,
      "áĬ¼áĭ³": 2447,
      "ned": 2448,
      "ser": 2449,
      "áīłáįĬáīµ": 2450,
      "áĪ³áĪĪ": 2451,
      "áĭĭáĪĪáĬ¹": 2452,
      "Ġwhose": 2453,
      "áī°áĬĽáĭİáī½": 2454,
      "hip": 2455,
      "ĠáĬłáĪ¨áįĪ": 2456,
      "áĪłáĭĬáĭ«": 2457,
      "áĪĪáĬ¥áĪµáĪ«áĬ¤áĪį": 2458,
      "áĭ«áĮĪáĪĪáĮį": 2459,
      "áĬ¹áīµ": 2460,
      "Ġdep": 2461,
      "áī£áĪªáĭ«áĭİáī½": 2462,
      "hua": 2463,
      "Ġcho": 2464,
      "áīłáĭļáĭ«áĬķ": 2465,
      "iqu": 2466,
      "ĠáĬ¤": 2467,
      "Ġáĭĵ": 2468,
      "ĠIn": 2469,
      "Ġáĭ¨áĪĽ": 2470,
      "ĠJos": 2471,
      "áĪµáĮ¥áĬ¤áĪĽ": 2472,
      "Ġwine": 2473,
      "áĬ¨áĪŃáĪ±áĪĿ": 2474,
      "áĪħáĬķ": 2475,
      "Ġthing": 2476,
      "tain": 2477,
      "áĬŀ": 2478,
      "áīłáīµáĪĿ": 2479,
      "áīłáĭŃáĪģáĭ³": 2480,
      "Ġsk": 2481,
      "Ġyet": 2482,
      "áĪĻáĪ´áĪĿ": 2483,
      "áĪ¥áĪŃáĭĲ": 2484,
      "Ġtemple": 2485,
      "ib": 2486,
      "ose": 2487,
      "áĭ¦": 2488,
      "áĮ¤": 2489,
      "áĭ¨áĬ¥áĮįáĭļáĬłáī¥áĪĶáĪŃáĪĿ": 2490,
      "áĬĲáī¢": 2491,
      "áĪĭáĪ³": 2492,
      "Ġgr": 2493,
      "ĠáĬ¥áĪŃáĪ±áĪĿ": 2494,
      "ĠWho": 2495,
      "áĭ¨áĬ¥áĪµáĪ«áĬ¤áĪįáĪĿ": 2496,
      "Ġwritten": 2497,
      "Ġtaken": 2498,
      "áĭĪáĬķáĮĮáĪį": 2499,
      "áĭĪáĪįáĭµ": 2500,
      "áĭĺáĭĺ": 2501,
      "Ġbeing": 2502,
      "áĪĻáīµ": 2503,
      "Ġgen": 2504,
      "Ġstren": 2505,
      "áįĥáĬķ": 2506,
      "ĠPharaoh": 2507,
      "Ġbody": 2508,
      "áįŃ": 2509,
      "áĭŃáĪĽ": 2510,
      "Ġiniqu": 2511,
      "Ġreb": 2512,
      "áĭĲáĪĺ": 2513,
      "Ġref": 2514,
      "Ġfru": 2515,
      "áĬłáĬķáī°áĪĿ": 2516,
      "Ġworld": 2517,
      "áĪŁ": 2518,
      "Ġwall": 2519,
      "áĭŃáĮĪ": 2520,
      "áĪĲáĭĭáĪŃáĭ«áīµ": 2521,
      "áĪ½áĪĽáĮįáĪĮ": 2522,
      "ĠáĬ¥áĬķáī°": 2523,
      "Ġunderstand": 2524,
      "ĠPhilistines": 2525,
      "eed": 2526,
      "Ġnam": 2527,
      "áĪ³áĪŃ": 2528,
      "Ġáīłáĭ°": 2529,
      "áĪ®áĬķ": 2530,
      "Ġlight": 2531,
      "Ġconcerning": 2532,
      "How": 2533,
      "áīłáīħ": 2534,
      "áī£áĪĪáĭį": 2535,
      "ĠáĬłáī£áīµ": 2536,
      "Ġgrain": 2537,
      "áĪĿáĪķ": 2538,
      "Ġwis": 2539,
      "Ġsend": 2540,
      "Ġdaughters": 2541,
      "áĮ½áĭµáīħ": 2542,
      "ĠLevites": 2543,
      "ner": 2544,
      "ĠáĬħ": 2545,
      "áīłáįį": 2546,
      "Ġfood": 2547,
      "Ġyourself": 2548,
      "ĠáĬ¥áĬĲ": 2549,
      "Ġcomes": 2550,
      "aiah": 2551,
      "oved": 2552,
      "áĮĦ": 2553,
      "áīłáĪ¬": 2554,
      "áĪįáīµ": 2555,
      "áĬĲáįĭ": 2556,
      "áī³áĭĬ": 2557,
      "Ġseen": 2558,
      "ĠTh": 2559,
      "Ġáī£áĪĪ": 2560,
      "ĠáĪĨáĬĲ": 2561,
      "Ġcubits": 2562,
      "ip": 2563,
      "ĠáĪļ": 2564,
      "Ġdied": 2565,
      "áĪ©áĬķ": 2566,
      "áĬ«áĬķ": 2567,
      "enth": 2568,
      "áĮĮáī³áĭ¬": 2569,
      "áĬłáĬķáīº": 2570,
      "All": 2571,
      "áĭŃáĪĺáĮ£": 2572,
      "Ġdiv": 2573,
      "aster": 2574,
      "Ġnothing": 2575,
      "áī´áĬķ": 2576,
      "ched": 2577,
      "ks": 2578,
      "Ġsan": 2579,
      "Ġtold": 2580,
      "Ġinheritance": 2581,
      "ER": 2582,
      "cha": 2583,
      "áĬłáįį": 2584,
      "áĬłáĪ«áīµ": 2585,
      "Ġwa": 2586,
      "Ġsame": 2587,
      "áĬ¥áĬķáĪµ": 2588,
      "áīĢáĭį": 2589,
      "áĪ°áĪĽáĭķáīµ": 2590,
      "My": 2591,
      "áĪĪáĬ¥áĮįáĭļáĬłáī¥áĪĶáĪŃáĪĿ": 2592,
      "áĭ«áĪĪáĬ¹": 2593,
      "áĬ¨áĬ¥áĬĵáĬķáī°": 2594,
      "áĪ³áĪį": 2595,
      "ĠáīłáĪį": 2596,
      "raham": 2597,
      "cept": 2598,
      "ĠáĪĲáĭĭáĪŃáĭ«áīµ": 2599,
      "Ġunclean": 2600,
      "Ġdisciples": 2601,
      "ĠáĪ°áĭį": 2602,
      "áĪĺáĪĭáĬ¥áĬŃáīµ": 2603,
      "Ġpower": 2604,
      "áĭ²áĭ«": 2605,
      "vers": 2606,
      "Ġprophet": 2607,
      "ss": 2608,
      "áĭĮ": 2609,
      "áĪµáīĨ": 2610,
      "cend": 2611,
      "áĪłáĪ©": 2612,
      "áĪµáĭµáĪµáīµ": 2613,
      "áĭµáĬķáĮĭáĭŃ": 2614,
      "áĮ´áĮ¥": 2615,
      "ĠáĭĵáĪĺ": 2616,
      "áī°áĬķ": 2617,
      "ĠáĬ¥áĮħ": 2618,
      "Ġbrothers": 2619,
      "áīµáĬ¥áĭĽáĭĿ": 2620,
      "áĪĺáĭĽáĪĻáĪŃ": 2621,
      "ween": 2622,
      "áīłáĬ¥áĬĶ": 2623,
      "Ġopp": 2624,
      "Ġcur": 2625,
      "áĭĲáī¥": 2626,
      "áĪĻáĪ´áĬķ": 2627,
      "Ġfeet": 2628,
      "áĬĲáĬ½": 2629,
      "Ġstat": 2630,
      "áĭŃáĪĽáĬĸ": 2631,
      "áĪĿáĪį": 2632,
      "áĬłáīħ": 2633,
      "áĪĺáĪªáĭ«": 2634,
      "áĮ£áĭĸ": 2635,
      "áĭĭáīĤ": 2636,
      "ived": 2637,
      "Ġ2": 2638,
      "hem": 2639,
      "áĪĭáĪī": 2640,
      "Ġmale": 2641,
      "Ġyourselves": 2642,
      "ff": 2643,
      "kiah": 2644,
      "áī¥áĭĵ": 2645,
      "áī°áĬĵ": 2646,
      "Ġfind": 2647,
      "áĭ³áī¸áĭį": 2648,
      "ets": 2649,
      "áĪ°áĪĽáĭ«": 2650,
      "ified": 2651,
      "ĠJews": 2652,
      "ĠáĮ³áĮ³": 2653,
      "not": 2654,
      "áĬ¥áĭįáĬĲáīµ": 2655,
      "rew": 2656,
      "Ġbes": 2657,
      "ense": 2658,
      "Ġhere": 2659,
      "ĠáīłáĪĺ": 2660,
      "áĭĭáĮĭ": 2661,
      "áĭķáĭį": 2662,
      "Ġreg": 2663,
      "áĪĭáĬ¥áĬŃ": 2664,
      "Ġenter": 2665,
      "Ġgods": 2666,
      "ĠáĬ¥áĬĽ": 2667,
      "áĪĺáĪįáĪ¶": 2668,
      "áī·áĪį": 2669,
      "Ġbetween": 2670,
      "ken": 2671,
      "ĠáĬķáĮīáĪ¥": 2672,
      "áĪĺáĬĳ": 2673,
      "eds": 2674,
      "ĠáĬłáĪĪáĭį": 2675,
      "áĮ¥áĪĿ": 2676,
      "imon": 2677,
      "áĪĻáĬķ": 2678,
      "áĮ½áĬĵ": 2679,
      "áĪĺáĪĪáĪ°": 2680,
      "áĬłáĭįáĪ«": 2681,
      "Ġcontin": 2682,
      "Go": 2683,
      "áĮ©": 2684,
      "áĪįáĬ½": 2685,
      "áī°áĪ°": 2686,
      "semb": 2687,
      "áĬªáĭ³áĬķ": 2688,
      "Ġjoy": 2689,
      "áĬ¨áĬĲáĪŃáĪ±": 2690,
      "000": 2691,
      "ives": 2692,
      "ĠáĮł": 2693,
      "áĪ°áĪĻ": 2694,
      "Ġlord": 2695,
      "Ġhel": 2696,
      "Ġask": 2697,
      "áĭ°áĪ¨áĮį": 2698,
      "áĬłáĬķáĭ²": 2699,
      "ĠJose": 2700,
      "ĠáĮį": 2701,
      "Ġsat": 2702,
      "ĠOr": 2703,
      "ĠWI": 2704,
      "Ġark": 2705,
      "áĪ°áĮłáĭį": 2706,
      "áĬłáĪ³áĪį": 2707,
      "Ġdeliver": 2708,
      "Ġpresent": 2709,
      "ĠJoseph": 2710,
      "over": 2711,
      "hered": 2712,
      "áīµáĬķáĪĿ": 2713,
      "Ġmorn": 2714,
      "áĪħáĪŃ": 2715,
      "áĪ±áĬķ": 2716,
      "áĮ¥áīłáī¥": 2717,
      "ally": 2718,
      "ĠJeho": 2719,
      "áĭªáī±áĬķ": 2720,
      ",'": 2721,
      "áĬĲáĮĭ": 2722,
      "áĭµáĮĵ": 2723,
      "áĪ°áĭįáĪĿ": 2724,
      "áĮİáī½": 2725,
      "ĠáĪĲáĭĭáĪŃáĭ«": 2726,
      "áĭ¨áĪ°áĪ«áĭĬáīµ": 2727,
      "Ġremain": 2728,
      "bes": 2729,
      "ĠáĪ°áĭİáī½": 2730,
      "ĠáĪ³áĭŃ": 2731,
      "Ġwhole": 2732,
      "Ġmorning": 2733,
      "We": 2734,
      "Why": 2735,
      "Ġter": 2736,
      "áī£áĪŃ": 2737,
      "áī³áĬĵ": 2738,
      "áĬķáĭµáĪŃ": 2739,
      "ĠáĬłáĪ¨áĮĭ": 2740,
      "áĪĮáĪĬáīµ": 2741,
      "iel": 2742,
      "áĬ¥áĮģ": 2743,
      "áĬŃáĬķ": 2744,
      "Ġbeast": 2745,
      "áī¶áī¹": 2746,
      "áī¶áī»áī¸áĭį": 2747,
      "ES": 2748,
      "áīłáĬ¢áĭ¨áĪ©áĪ³áĪĮáĪĿ": 2749,
      "áĪŃáĭ¨": 2750,
      "áĪĪáĭįáĬķ": 2751,
      "áĪĺáĬĽ": 2752,
      "áĭµáĬĵ": 2753,
      "áī½áĬĵ": 2754,
      "áĬłáĪĿáĪĭáĬŃáĬ½": 2755,
      "Ġmighty": 2756,
      "Ġchief": 2757,
      "Ġenemies": 2758,
      "ches": 2759,
      "ister": 2760,
      "áĮ£áĪį": 2761,
      "ĠáĪĺáī³áĪ°áī¢áĭ«": 2762,
      "áĪĨáĬķ": 2763,
      "Ġpeoples": 2764,
      "ĠOF": 2765,
      "Ġprophets": 2766,
      "Ġcountry": 2767,
      "áĭ«áĮĪáĪĪáĮįáĪī": 2768,
      "ious": 2769,
      "Ġáĭ¨áĪĿáĬķ": 2770,
      "Ġliving": 2771,
      "áīłáĪĺáĬ«áĬ¨": 2772,
      "Ġsanct": 2773,
      "áĬ£": 2774,
      "áĬ¹áĪĿ": 2775,
      "áĬ¥áĪµáĬŃáĬķáĭµ": 2776,
      "áĭ©áĪĿ": 2777,
      "Ġprov": 2778,
      "ĠAbraham": 2779,
      "áĬ¨áĬķáī±": 2780,
      "ĠáĬ¥áĬķáĭ²áĪģáĪĿ": 2781,
      "áĭ°áĪªáĭ«": 2782,
      "áĮ½áĬĳ": 2783,
      "Ġstru": 2784,
      "áĬĲáįįáĪ´": 2785,
      "ĠáĪĽáĬħ": 2786,
      "áīłáĭµ": 2787,
      "áĭ¨áī³": 2788,
      "áĭ¨áĬłáī£": 2789,
      "áĬ¨áĭļáĪħ": 2790,
      "áĪ°áĭ°": 2791,
      "Ġpers": 2792,
      "áī£áī¢áĪİáĬķ": 2793,
      "Ġind": 2794,
      "Ġcast": 2795,
      "Ġwind": 2796,
      "ĠSon": 2797,
      "áĪĬáĬĵ": 2798,
      "áĭ°áĪ¨áĪ°": 2799,
      "oney": 2800,
      "áĬ«áĪħáĬĵáīµ": 2801,
      "áĬ¥áĬķáĭµáīµ": 2802,
      "áĭµáĬķáĬ³áĬķ": 2803,
      "ĠYOU": 2804,
      "den": 2805,
      "áĪµáĪĭ": 2806,
      "Ġoil": 2807,
      "These": 2808,
      "Ġrel": 2809,
      "ĠáĪĺáĪĭáĬ¥áĬŃáīµ": 2810,
      "áĭ®áĬķ": 2811,
      "áī°áīĢáīłáĪį": 2812,
      "áįįáĪįáĪµáĮ¥áĬ¤áĪĽ": 2813,
      "Ġfruit": 2814,
      "oab": 2815,
      "áĪĦ": 2816,
      "Ġpart": 2817,
      "jah": 2818,
      "ĠáĬ¥áĮįáĭļ": 2819,
      "hel": 2820,
      "áĪŃáĬ®": 2821,
      "áĭŃáĬķ": 2822,
      "áĭ«áĪµáĪĿ": 2823,
      "áĭĺáĪ¨": 2824,
      "áĪ³áī½áĬ¹": 2825,
      "áĭĿáĪĿ": 2826,
      "Ġáī°áĭĪ": 2827,
      "Ġflock": 2828,
      "ĠáĬĦ": 2829,
      "Ġgener": 2830,
      "áĬłáĪĽáĪį": 2831,
      "áĬ¨áįĪ": 2832,
      "Ġlam": 2833,
      "ices": 2834,
      "áĮ¡áīµ": 2835,
      "áĭłáĪĺáĪªáĭ«": 2836,
      "áī¥áĪĭáī´áĬĵ": 2837,
      "men": 2838,
      "ron": 2839,
      "áĭ¥": 2840,
      "Ġsurely": 2841,
      "áĭŃáī³": 2842,
      "áĮĪáĬĿ": 2843,
      "Ġpast": 2844,
      "Ġlay": 2845,
      "Ġáīłáĭļáī½": 2846,
      "Ġassemb": 2847,
      "áĮĪáī¡áīµ": 2848,
      "áĭķáĪŃáĪ»": 2849,
      "ged": 2850,
      "kind": 2851,
      "ĠáĪ«": 2852,
      "áĪŃáĬķ": 2853,
      "Ġsur": 2854,
      "Ġsix": 2855,
      "áĪĺáĭįáĬķ": 2856,
      "áĭ«áĭĺ": 2857,
      "Ġgar": 2858,
      "ĠáĬłáĪŃ": 2859,
      "áĪķáĭ«áĭį": 2860,
      "Ġáĭ¨áĪĨáĬĲ": 2861,
      "Ġstood": 2862,
      "Ġlived": 2863,
      "ĠThat": 2864,
      "áĪĭáī¸áĭįáĪĿ": 2865,
      "Ġconf": 2866,
      "Ġtwenty": 2867,
      "ĠáĭĽ": 2868,
      "áįı": 2869,
      "oun": 2870,
      "áī°áĪµáįĭ": 2871,
      "Ġfive": 2872,
      "Ġever": 2873,
      "Ġstill": 2874,
      "Ġknown": 2875,
      "Ġwaters": 2876,
      "ĠáįįáĮ¹": 2877,
      "ĠáĬŃáĪŃáĪµáī²áĭ«áĬķ": 2878,
      "ĠáĪĺáĬĲáĬ°áĪ³áīµ": 2879,
      "Ġtim": 2880,
      "Ġmust": 2881,
      "Ġwid": 2882,
      "áĭ®áĬĵ": 2883,
      "áĪĺáĪĪáĬ¨": 2884,
      "Ġlonger": 2885,
      "ĠEli": 2886,
      "Ġinhabitants": 2887,
      "ring": 2888,
      "áĬ¥áĪ³áīµ": 2889,
      "Ġpo": 2890,
      "Ġreign": 2891,
      "Ġcannot": 2892,
      "Ġarmy": 2893,
      "Ġiniquity": 2894,
      "uel": 2895,
      "Ġsla": 2896,
      "ons": 2897,
      "Ġrec": 2898,
      "ĠáĬ¥áĬĶ": 2899,
      "áĪ½áĪĿ": 2900,
      "áīłáĬ¥áĭį": 2901,
      "Ġhelp": 2902,
      "ail": 2903,
      "then": 2904,
      "áīłáĪĪáīµ": 2905,
      "áĪįáī£": 2906,
      "áĭ¨áĪĪ": 2907,
      "áĭŃáĪĪ": 2908,
      "Ġdark": 2909,
      "ĠáīłáĪļ": 2910,
      "Ġgone": 2911,
      "áĭĭáĪįáĬĵ": 2912,
      "Ġáĭ¨áīħáĭ±áĪ³áĬķ": 2913,
      "lders": 2914,
      "ĠáĬ¥áĬĵáī±": 2915,
      "Ġblessed": 2916,
      "áĭķáĬķáĮ¨": 2917,
      "áĬ¥áĬķáĪµáĪ³": 2918,
      "ĠáĮ»áĭµáīħ": 2919,
      "áĪĿáĬķáĭµáĪŃ": 2920,
      "áĬ¥áĭ«áĬķáĭ³áĬķ": 2921,
      "Ġsign": 2922,
      "áĬ¨áĪ°": 2923,
      "Ġburn": 2924,
      "ĠáīłáĬłáĬķáĭµáĬĲáīµ": 2925,
      "Ġáĭ¨áĬ¨áīłáĪ¨": 2926,
      "Your": 2927,
      "áĪµáĪĪáĭļáĪħáĪĿ": 2928,
      "thren": 2929,
      "áĭĲáĭŃáĬķ": 2930,
      "Ġangel": 2931,
      "áĪ«áĪ±áĬķ": 2932,
      "Ġstruck": 2933,
      "flic": 2934,
      "side": 2935,
      "Ġáį¤": 2936,
      "áĭ¨áĭŃáĪģáĭ³": 2937,
      "áĮĭáī³": 2938,
      "áĭķáĭµ": 2939,
      "áĪ½áĬķ": 2940,
      "áĮķáĪį": 2941,
      "Ġtribe": 2942,
      "áĬłáĭ°áĪ¨áĮī": 2943,
      "ĠáĪ°áĪĽáĭķáī³": 2944,
      "Ġwisdom": 2945,
      "ĠáĬłáĪ¨áĮĭáĭĬ": 2946,
      "ĠáĭµáĬķ": 2947,
      "ĠáĬŃáī¥áĪŃ": 2948,
      "áīłáīĢáĪŃ": 2949,
      "Ġwhe": 2950,
      "áī£áĪįáĬķ": 2951,
      "Ġcro": 2952,
      "Ġcould": 2953,
      "áī³áī¸áĭįáĬķ": 2954,
      "áĪ³áĪī": 2955,
      "ĠáīłáĪĺáĬķáįĪáĪµ": 2956,
      "ows": 2957,
      "ĠáĭĪáĪ¨": 2958,
      "áįİáī½": 2959,
      "áĮĪáĪĪáĮł": 2960,
      "ĠáĬĲáī¢áĭ«áīµ": 2961,
      "ĠJoshua": 2962,
      "áĪĺáĪłáĭĬáĭ«": 2963,
      "áĬĲáī¥": 2964,
      "Ġcour": 2965,
      "áįĪáīĥ": 2966,
      "ĠáĬłáĬĲ": 2967,
      "Ġstri": 2968,
      "áĪĺáĪĪáĪµ": 2969,
      "Ġtruth": 2970,
      "Ġclot": 2971,
      "Ġshow": 2972,
      "ĠáĬ¥áĬķáĭ²áĪħ": 2973,
      "áĪĴ": 2974,
      "áĭ·": 2975,
      "áĮĢáĪ«": 2976,
      "áīłáĮįáī¥áĮ½": 2977,
      "áī¥áĬĿ": 2978,
      "áĪĮáĪĪ": 2979,
      "áĭ®áĪŃáĭ³": 2980,
      "Ġserve": 2981,
      "Ġdescend": 2982,
      "áĪĺáĬķáĮįáĪ¥áīµ": 2983,
      "ĠáĮ»áĭµáīĥáĬķ": 2984,
      "áĬĹ": 2985,
      "Ġten": 2986,
      "áĭµáĬ»": 2987,
      "Ġeast": 2988,
      "ĠáĪĺáĮ½áĪĲáįį": 2989,
      "ĠEph": 2990,
      "áĭĪáĭŃáĪµ": 2991,
      "Ġbuilt": 2992,
      "áĮłáī¥áīħ": 2993,
      "Ġpresence": 2994,
      "áĬºáĭµ": 2995,
      "day": 2996,
      "áĪ«áĬĵ": 2997,
      "áĪ³áĪĻ": 2998,
      "ash": 2999,
      "áĮ£áīµ": 3000,
      "áĪİáī½": 3001,
      "áĪķáĭĿáī¤": 3002,
      "Ġbuild": 3003,
      "lf": 3004,
      "zz": 3005,
      "Ġáĭ³": 3006,
      "Ġut": 3007,
      "ĠáĮīáī£áĬ¤": 3008,
      "áĬķáĮ¹": 3009,
      "ots": 3010,
      "amin": 3011,
      "áĪįáĮĦ": 3012,
      "áīµáĬķáĬĵ": 3013,
      "áĪłáĪ¨áĮĪ": 3014,
      "áĪĲáĪ°": 3015,
      "áĮħáī¶": 3016,
      "Ġoffic": 3017,
      "áĮłáī¥áīģ": 3018,
      "áīłáĭĻáĪªáĭ«": 3019,
      "Ġgathered": 3020,
      "áĭįáĪµ": 3021,
      "Ġfif": 3022,
      "áĪ°áī¥áĪ": 3023,
      "athan": 3024,
      "áĮ¥áĪ©": 3025,
      "ĠJord": 3026,
      "Ġvine": 3027,
      "ĠáĭĺáĬķ": 3028,
      "áĮ¨áĪĪáĪĽ": 3029,
      "ĠThere": 3030,
      "áĪįáī¥áĪµ": 3031,
      "ĠJordan": 3032,
      "og": 3033,
      "áĬķáīµ": 3034,
      "Ġsound": 3035,
      "áĪ¨áĮĲ": 3036,
      "Ġforg": 3037,
      "áī°áĬĵáĮĪáĪ¨": 3038,
      "ittle": 3039,
      "áĬłáĪĿáĪĭáĬ«áī½áĬķ": 3040,
      "áĬłáĭŃáĪģáĭµ": 3041,
      "Ġcontinu": 3042,
      "áī§": 3043,
      "ought": 3044,
      "áĪ¨áĬĽ": 3045,
      "ĠáīłáĭĪáĪįáĭµ": 3046,
      "ĠáĬłáĭŃ": 3047,
      "Ġelders": 3048,
      "Ġáĭ¨áĭ°": 3049,
      "áĪŀáĪĭ": 3050,
      "ĠáĭŃáĪĿ": 3051,
      "áĪŃáĪµáīµ": 3052,
      "On": 3053,
      "aan": 3054,
      "áĭ£": 3055,
      "áĪ«áī¥": 3056,
      "Ġhill": 3057,
      "áĬłáĪĪáĬĿ": 3058,
      "ĠáĭŃáĪįáīħ": 3059,
      "áĬĵáĮĪáĪ¨": 3060,
      "áĪķáĭĿáī¡áĬķ": 3061,
      "Ġorder": 3062,
      "ey": 3063,
      "ĠáĪĭ": 3064,
      "rem": 3065,
      "áĬŃáĪ³áĪŃ": 3066,
      "ĠáīłáĬłáī¥": 3067,
      "áĮ¥áī¶": 3068,
      "ides": 3069,
      "raim": 3070,
      "ĠáĪĺáĪĭáĬ¥áĬŃ": 3071,
      "ousand": 3072,
      "Ġsheep": 3073,
      "áīĪáĮł": 3074,
      "áĪµáĬķáĬŃáĪ³áĪŃ": 3075,
      "ĠBecause": 3076,
      "ĠáĪ¥áĪ«": 3077,
      "Ġáĭ®áĪĲáĬķáĪµ": 3078,
      "áĪĿáĭµáĪ¨": 3079,
      "áĪĺáĬ¨áĪ«": 3080,
      "áĬ¨áĮįáī¥áĮ½": 3081,
      "áĭĪáīħ": 3082,
      "áĪ¨áĭµ": 3083,
      "áĮłáĮ£": 3084,
      "áįĪáĪĪ": 3085,
      "Ġthousand": 3086,
      "Ġplaces": 3087,
      "ĠáĭŃáĪħáĬķ": 3088,
      "Ġwit": 3089,
      "áĪ«áĪĿ": 3090,
      "áĪ«áĪį": 3091,
      "áĪĽáīµ": 3092,
      "áĬŃáĪĬ": 3093,
      "ĠáĬłáĭĭáīĤ": 3094,
      "irc": 3095,
      "Ġstone": 3096,
      "áĪłáĪĭáĪ³": 3097,
      "Ġsev": 3098,
      "áī»áī¸áĭįáĪĿ": 3099,
      "alley": 3100,
      "ĠáĭĺáĭĪáĪŃ": 3101,
      "áĬ¾áĬķáĬ¹": 3102,
      "Ġáī¥áĭĽáīµ": 3103,
      "áĬ°áĬķ": 3104,
      "áīłáĬ¥áĭįáĬĲáīµ": 3105,
      "Ġremem": 3106,
      "Ġappointed": 3107,
      "ĠáĪķáįĥáĬķ": 3108,
      "áī¥áĪŃáĪĥáĬķ": 3109,
      "Ġstrength": 3110,
      "áīłáĬµ": 3111,
      "áĪµáī¥": 3112,
      "áĭµáĪĽ": 3113,
      "áĮįáĪĿ": 3114,
      "áĮĭáĪį": 3115,
      "ĠMoab": 3116,
      "Ġsal": 3117,
      "ĠáĪĺáĮ½áĪĲ": 3118,
      "áī»áĪĪáĬ¹": 3119,
      "áĪ²áĪį": 3120,
      "áĭİáī¹áĬķ": 3121,
      "Ġsins": 3122,
      "Ġtrans": 3123,
      "Ġwrath": 3124,
      "ured": 3125,
      "Ġid": 3126,
      "áĪ°áĬķ": 3127,
      "áĮĪáĬĻ": 3128,
      "esh": 3129,
      "Ġmak": 3130,
      "ute": 3131,
      "Ġáĭ¨áĮĮáī³": 3132,
      "ĠBeth": 3133,
      "áī°áĬĽáĭįáĪĿ": 3134,
      "áĬłáĪįáī°": 3135,
      "áĮ¨áĪ¨": 3136,
      "Ġtwel": 3137,
      "áĬ¨áĬĲáĪŃáĪ±áĪĿ": 3138,
      "Ġfool": 3139,
      "Ġáį²": 3140,
      "Ġsecond": 3141,
      "ĠáĬħáī¡": 3142,
      "ĠáĬ¥áĬĽáĬķáĪĿ": 3143,
      "áī£áĪįáĬķáĮĢáĪ«": 3144,
      "ĠáĭĺáĭĪáĪŃáĬĢ": 3145,
      "ĠáĭĵáĪĺáīµ": 3146,
      "Ġbattle": 3147,
      "áĪ¨áĭ³": 3148,
      "Ġlittle": 3149,
      "eter": 3150,
      "áĮĬáĭ«": 3151,
      "ĠáĪĪáĪģ": 3152,
      "áī´áĪĿ": 3153,
      "áĪ¸áĬŃ": 3154,
      "Ġru": 3155,
      "Ġafflic": 3156,
      "Ġprin": 3157,
      "Ġanyone": 3158,
      "ĠáĬłáĭĺáĮĭ": 3159,
      "áĮĨáī½": 3160,
      "Ġreturned": 3161,
      "ĠáĪĥáĭŃáĪĽáĬĸ": 3162,
      "Ġáĭĵáĭ²": 3163,
      "áīµáĭį": 3164,
      "áĭ¨áĭį": 3165,
      "áĪ«áīĤ": 3166,
      "áįĪáĪ³": 3167,
      "Ġáĭ¨áĪĿáī³": 3168,
      "Ġones": 3169,
      "ĠCan": 3170,
      "áĬłáĭµáĪŃáĮİ": 3171,
      "áĮ¥áīĤáīµ": 3172,
      "Ġáī£áĪĪáī¤áīµ": 3173,
      "ship": 3174,
      "ĠáĪ¥": 3175,
      "Ġest": 3176,
      "áĭŃáĪį": 3177,
      "áĭŃáįį": 3178,
      "áĬ¨áĭļáĭ«": 3179,
      "ang": 3180,
      "áĪļáĪµáīµ": 3181,
      "áĭĲáĪ¥áĪŃ": 3182,
      "Ġthird": 3183,
      "áī¤áĪį": 3184,
      "Ġdoor": 3185,
      "áĪ¸áĪĪ": 3186,
      "Ġloving": 3187,
      "áī³áĪĭáīģ": 3188,
      "ĠáĬķáī£": 3189,
      "Ġbrethren": 3190,
      "áĭĪáĬķáĭµáĪŀáī½": 3191,
      "áĪ°áīłáĪ°áī¥": 3192,
      "áĪ³áĪĻáĬ¤áĪį": 3193,
      "áĪłáĪ¨áĮĪáĪĭ": 3194,
      "ying": 3195,
      "ĠáīĨ": 3196,
      "áį®": 3197,
      "áĮ¶": 3198,
      "áĬĲáĪ³": 3199,
      "Ġhaving": 3200,
      "áĮłáĮħ": 3201,
      "Ġáĭ¨áĮ»áįĪ": 3202,
      "áĬ¤áįįáĪ¬": 3203,
      "áĬĵáĮĪáĪ©": 3204,
      "áī°áīĢáĪĺáĮł": 3205,
      "áĬŃáĪŃáī³áĪµ": 3206,
      "Ġwomen": 3207,
      "ĠáīĥáĪĪ": 3208,
      "áĭ³áĪŃáī»": 3209,
      "ĠáĮ³áĮ³áĪ³áīµ": 3210,
      "ĠáĬĦáĪ«áĬķ": 3211,
      "áīłáĬ¥áĭįáĬĳ": 3212,
      "ike": 3213,
      "Ġtree": 3214,
      "Ġmuch": 3215,
      "ĠáĪĺáīłáĪĪáīµ": 3216,
      "ĠáĬ¨áĮį": 3217,
      "Ġáĭ«áĭ³": 3218,
      "Ġheavens": 3219,
      "kindness": 3220,
      "ĠáĬħáī¡áĪ¨": 3221,
      "Chap": 3222,
      "IN": 3223,
      "sy": 3224,
      "áĬ¥áĬķáĬ³": 3225,
      "áĭĿáĬĵ": 3226,
      "ĠáĪĺáĪµ": 3227,
      "ĠáĪĺáĬ«áĬķ": 3228,
      "Ġáĭ°áĮĭ": 3229,
      "ĠáĪĲáĭ²áĪµ": 3230,
      "---": 3231,
      "ĠáĪķáĪĬáĬĵ": 3232,
      "áįĢáĪĵ": 3233,
      "áī°áĪŃáįĪ": 3234,
      "áī°áĪŃáĮĲ": 3235,
      "ĠáĪĺáĮ½áĪĲáįĪ": 3236,
      "Chapter": 3237,
      "Is": 3238,
      "ĠáĬ¥áĬķáĭ³": 3239,
      "áĬłáĭµ": 3240,
      "áĬ¥áĬŃ": 3241,
      "áĭįáĬĲ": 3242,
      "áī¸áĪŃ": 3243,
      "ĠáĬ¥áĭ«áĪ³": 3244,
      "áĭ°áĪŃáĮį": 3245,
      "áĬłáĮĪáĪį": 3246,
      "Ġáĭ¨áĪļáĬ¨áīłáĪ©": 3247,
      "áįĪáĮ½áĪŀ": 3248,
      "Ġáī°áīĢáīłáĪį": 3249,
      "ĠáīĥáĪİ": 3250,
      "Ġsacrifice": 3251,
      "Ġnumber": 3252,
      "ĠáĭĪáĪŃáĬĢ": 3253,
      "ĠáĭĵáĪĺáī³áĭĬ": 3254,
      "ĠáĭĽáī²": 3255,
      "áĬ¥áĭ«": 3256,
      "áĪĪáĪģ": 3257,
      "áĭ°áĬķ": 3258,
      "Ġbord": 3259,
      "Ġborn": 3260,
      "Ġtoday": 3261,
      "áĪ¨áĬĲ": 3262,
      "áī£áĬķáĭµ": 3263,
      "áīĢáĪĺáĮ¡": 3264,
      "sec": 3265,
      "áĪŀáī±": 3266,
      "áĮ¸áĪį": 3267,
      "áĮ¸áĪĲ": 3268,
      "áĭ¶áĪĿ": 3269,
      "ĠWhen": 3270,
      "Because": 3271,
      "Ġáĭ¨áī°áĬĲáĪ³": 3272,
      "áĮ»áįĪáĭįáĪĿ": 3273,
      "Ġkept": 3274,
      "áĪ°áĪĿáĭĲ": 3275,
      "Ġteach": 3276,
      "áī½áĮįáĪ¬": 3277,
      "ĠBenj": 3278,
      "ĠáĬ¥áĮįáĭļáĬ¦": 3279,
      "Ġlovingkindness": 3280,
      "Ġáĭ°áĮĭáĮİáī½": 3281,
      "áĬłáĪ«": 3282,
      "áī¥áĪ¨": 3283,
      "Ġáĭ¨áĭĪáĬķáĮĮáĪį": 3284,
      "ĠáĬ¥áĪĻ": 3285,
      "áĪĺáĬķáĮĭ": 3286,
      "Ġvalley": 3287,
      "ĠáĭĺáĪįáįĪ": 3288,
      "áĭ¨áĪĽáĭŃ": 3289,
      "áĪ°áĭŃáĬ¨": 3290,
      "ĠáĬłáĭĺáĭĺ": 3291,
      "Ġchar": 3292,
      "ĠáīłáĬ¥áĪŃ": 3293,
      "ĠáĪĺáĪĭáĬ¥áĬŃáīµáĬķ": 3294,
      "ĠáĭĪáĪŃáĬĢáĭĬ": 3295,
      "ians": 3296,
      "ĠáĪī": 3297,
      "áĬ¥áĪĿ": 3298,
      "ined": 3299,
      "áĪ°áĬĵ": 3300,
      "áī£áĬ¥áĪµ": 3301,
      "ĠIt": 3302,
      "áįĪáĮ¥": 3303,
      "Ġáĭ¨áĮīáī£áĬ¤": 3304,
      "ĠáĬ¨áĪĺ": 3305,
      "áĪłáĪŃ": 3306,
      "áĭ«áĪµáī°": 3307,
      "Ġáī¥áĪ«áĬĵ": 3308,
      "ĠNor": 3309,
      "áīĢáĪŃáī¥áĪį": 3310,
      "áĪĺáĪµáĮ¦": 3311,
      "Ġáĭ¨áī°áĪ¨áĮĲ": 3312,
      "ages": 3313,
      "ĠáĬłáĬ¥áĪĭáįį": 3314,
      "ĠáĬłáĬ¥áĪĭáįĪ": 3315,
      "ĠáīłáĮ¸áĪİáī°": 3316,
      "ĠáīłáĪįáĪ³áĬķ": 3317,
      "ĠáĪĽáĬħáĪĮ": 3318,
      "Ġáī°áĭĪáĬ¨áįį": 3319,
      "ĠáįįáĮ¹áĪĽáĬķ": 3320,
      "ĠáĪ°áĪĽáĭķáī³áīµáĬĵ": 3321,
      "ĠáĬłáĭĺáĮĭáĮħáī¶": 3322,
      "?'": 3323,
      "áĬłáĮ½áĪĲ": 3324,
      "áĮįáĬĵáī¸áĭį": 3325,
      "áĪ¨áĬŃ": 3326,
      "áĭĺáĬłáīħ": 3327,
      "Ġpill": 3328,
      "áĮłáī£": 3329,
      "áĮłáīĢ": 3330,
      "ĠáīłáĬŃáĪŃáī³áĪµ": 3331,
      "****": 3332,
      "áĭķáĮ£": 3333,
      "áĬ«áĪį": 3334,
      "áī¤áī¶áī½": 3335,
      "áĭĽáįį": 3336,
      "áĪªáīĢ": 3337,
      "ĠáĭĪáĪĺáĬĲ": 3338,
      "ĠáĭĪáĮ»áĭµáīĥáĬķ": 3339,
      "ĠáĭĪáĪĲáĭĭáĪŃáĭ«áīµ": 3340,
      "ĠáĭĪáĪĺáĪĭáĬ¥áĬŃáīµ": 3341,
      "áĪĲáĪ¨áĬĲ": 3342,
      "ĠáĭŃáĭ°áĪŃáĪµ": 3343,
      "ĠáĪĪáĪĪáĬł": 3344,
      "áĬªáĪŃáĭ¨": 3345,
      "Ġáĭĺáī°áĪŃáįĪ": 3346,
      "Ġáī¥áĭĳ": 3347,
      "Ġáī£áĪŃáĬ®": 3348,
      "Ġnever": 3349,
      "Ġsince": 3350,
      "ĠáĬ¥áĪĿáī£áĬ¥áĪµ": 3351,
      "áĭ´áīµáĭ¨": 3352,
      "áīłáĪĽáĪŃáĭ«áĪĿ": 3353,
      "ĠáĬłáĭĺáĬªáĪŃáĭ¨": 3354,
      "ĠáĭĪáĪĪáĭĺáī°áĪŃáĮĲ": 3355,
      "ĠáĭĪáĪĪáĭĺáĪ°áĪĿáĭĲ": 3356,
      "ĠáĭĪáĪĪáĭĺáĬłáĮ½áĪĲ": 3357,
      "áĪ¨áī¥áĬ©": 3358,
      "ĠáĪ¨áĪ°áĭŃáĬ¨": 3359,
      "Ġimp": 3360,
      "áĪĪáĬĽáĬķ": 3361,
      "ĠáĮ¸áĪªáīĢ": 3362,
      "áĬ¡áĪµ": 3363,
      "áĬłáĬķáīłáī¦": 3364,
      "ĠáĭĲáĪ«áīĤ": 3365,
      "ĠáĪ³áĭŃáĪĪáĭŃ": 3366,
      "áĬĲáī¥áī¥": 3367,
      "ĠáĬłáĬĲáĪµáī°áĬĽ": 3368,
      "ĠáĭĺáĬķáĭ´áīµáĭ¨": 3369,
      "ĠáĭŃáĪĿáĪĲáĪ¨áĬĲ": 3370,
      "ĠáĬķáī£áī¡áĬķ": 3371,
      "áĮ¸áĪĲáįİ": 3372,
      "ĠáĪĽáĬħáĪĮáī°": 3373,
      "áĭĺáĬłáīħáĪ¨áī¥áĬ©": 3374,
      "ĠáĪĪáĪĪáĬłáĬĲáī¥áī¥": 3375,
      "Ġáī¥áĭĳáĪĭáĬķ": 3376,
      "ĠáĭĪáĪĪáĭĺáī°áĪŃáĮĲáĪŀ": 3377,
      "ĠáĭĪáĪĪáĭĺáĬłáĮ½áĪĲáįİ": 3378,
      "ĠáĭĲáĪ«áīĤáī°": 3379,
      "ling": 3380,
      "áĭ¨áĬĵ": 3381,
      "áī£áĬķ": 3382,
      "Ġcry": 3383,
      "Ġhon": 3384,
      "Ġinst": 3385,
      "Ġhapp": 3386,
      "Ġáīłáī½áĮįáĪ¬": 3387,
      "ĠáĬłáĪĽáĪŃ": 3388,
      "áĪµáĪĿáĪŃ": 3389,
      "áĪĬáĭ«": 3390,
      "Ġáĭ«áĮ»áįĪáĭįáĪĿ": 3391,
      "Ġáĭ°áĪĿáĮ¦": 3392,
      "áĪĪáĭĺáĮ¸áĪĲáįİ": 3393,
      "Ġáĭ¨áĪļáĭ«áĮĪáĪĪáĮįáĪī": 3394,
      "ĠáĬ¥áĬķáĭ°áī°áīĢáīłáĪį": 3395,
      "áī³áĭįáīĥ": 3396,
      "áĪĢáĭªáī±áĬķ": 3397,
      "ĠáĬ«áĮĪáī¡áīµ": 3398,
      "Ġáīłáī°áĪĺáĪµáĮ¦": 3399,
      "áĭįáĪİáĪµ": 3400,
      "Ġáĭ¨áĪĽáīĢáĪŃáī¥áĪį": 3401,
      "Ġáīłáĭ°áĪĪáĬĽáĬķ": 3402,
      "áĪ°áĪĽáĭķáīµáĬĲáīµ": 3403,
      "Ġáĭ¨áĪĿáĬķáĪ°áīłáĪ°áī¥": 3404,
      "ĠáĭĪáĪ¨áīĢáīµ": 3405,
      "áĪ°áī¥áĪģ": 3406,
      "Ġáĭ¨áĭ°áĪĢáĭªáī±áĬķ": 3407,
      "ĠáĪĪáĪģáĪį": 3408,
      "Ġáĭ¨áĪĿáī³áĪµáĪĿáĪŃ": 3409,
      "Ġáĭ¨áĮ»áįĪáĭįáĬĵ": 3410,
      "ĠáĬ¨áĮįáĭķáĭĿ": 3411,
      "Ġáĭ«áĭ³áĪĺáĮł": 3412,
      "ĠáĬ¥áĭ«áĪ³áĪ°áī¥áĪģ": 3413,
      "ĠáīłáĬ¥áĪŃáĮĭáī³": 3414,
      "Ġáĭ¨áī°áĪ¨áĮĲáĪĺáĭįáĬķ": 3415,
      "ĠáĬłáĪĽáĪŃáĬĽ": 3416,
      "Ġáĭ¨áĪļáĭ«áĮĪáĪĪáĮįáĪīáĪħ": 3417,
      "ĠáĬ¥áĬķáĭ°áī°áīĢáīłáĪįáĪħ": 3418,
      "Ġáĭ¨áĪĽáīĢáĪŃáī¥áĪįáĪħáĬķ": 3419,
      "Ġáĭ¨áĪĿáĬķáĪ°áīłáĪ°áī¥áīłáīµáĬķ": 3420,
      "ĠáĬĲáĮĪáĪŃ": 3421,
      "áĭ¨áĬ¾áĬĲáĭį": 3422,
      "ĠáĬłáĬķáĭµ": 3423,
      "Ġthough": 3424,
      "áĭĬáĭį": 3425,
      "EA": 3426,
      "ble": 3427,
      "Ġwise": 3428,
      "Ġox": 3429,
      "ision": 3430,
      "ĠáĬłáĭį": 3431,
      "Ġres": 3432,
      "áĬĲáĭįáĬķ": 3433,
      "Ġnew": 3434,
      "ledge": 3435,
      "Ġprep": 3436,
      "Ġthrone": 3437,
      "bath": 3438,
      "born": 3439,
      "áīłáĬ¥áĬĵáĬķáī°": 3440,
      "áĭĪáīĢ": 3441,
      "áĮįáĪĺáĬĽ": 3442,
      "áĬ¹áĬĳ": 3443,
      "áįĪáĬķ": 3444,
      "ĠáĬłáĪĿ": 3445,
      "áĭĲáĪ³": 3446,
      "áĭİáī½áĬĵ": 3447,
      "áĪįáĮĨáī¹": 3448,
      "Ġlands": 3449,
      "Ġways": 3450,
      "áĬ¹áĪĪáī±": 3451,
      "áī¥áĪŃáĪĥáĪĿ": 3452,
      "Ġfamilies": 3453,
      "Ġdepart": 3454,
      "Ġidol": 3455,
      "VE": 3456,
      "áĭ¨áĭĪáĭŃáĬķ": 3457,
      "áĭ°áĪ±": 3458,
      "áĭħáĪīáĪĿ": 3459,
      "áīµáĬķáī¢áīµ": 3460,
      "ĠBa": 3461,
      "áĪ¦áĪµ": 3462,
      "Ġtimes": 3463,
      "ĠáĬŃ": 3464,
      "Ġsun": 3465,
      "áĭ¨áĪĿáĭµáĪŃ": 3466,
      "áī¥áĪ«": 3467,
      "áīĢáīħ": 3468,
      "áīĢáĪĺáĮ¥": 3469,
      "Ġlaid": 3470,
      "áįĪáĭį": 3471,
      "Ġred": 3472,
      "Ġdeeds": 3473,
      "áĭ¬áĬķ": 3474,
      "ĠEphraim": 3475,
      "ds": 3476,
      "fter": 3477,
      "Ġáī¤áī°": 3478,
      "áĪĸ": 3479,
      "áįģ": 3480,
      "Ġaro": 3481,
      "áīłáĪĭáĭŃ": 3482,
      "áĬłáĪ®": 3483,
      "áĪĺáĭĿ": 3484,
      "áī£áĪī": 3485,
      "omin": 3486,
      "áĬŃáĬķáĭ«": 3487,
      "Ġbear": 3488,
      "ayed": 3489,
      "Ġthir": 3490,
      "áĭĵáĬķ": 3491,
      "ĠáĬ¨áĭļáĪħáĪĿ": 3492,
      "Ġdef": 3493,
      "asting": 3494,
      "Ġram": 3495,
      "áĬ¢áĭ¨áĪ©áĪ³áĪĮáĪĿáĪĿ": 3496,
      "Ġchari": 3497,
      "Ġdestroyed": 3498,
      "Ġarose": 3499,
      "ON": 3500,
      "oam": 3501,
      "áĭŃáīµ": 3502,
      "áĪĺáĪĿ": 3503,
      "áĬ¨áĪ¨": 3504,
      "atter": 3505,
      "áĮ£áĪī": 3506,
      "áĬ«áĪĿ": 3507,
      "áĭ¨áĪļáīĥáĮł": 3508,
      "áĮĬáĭľáĪĿ": 3509,
      "áĭ¨áĬ¥áĪµáĪ«áĬ¤áĪįáĬķ": 3510,
      "áĬĢáĭŃáĪį": 3511,
      "Ġmountains": 3512,
      "áĭ¦áĪ®": 3513,
      "Ġáī¥áĪİ": 3514,
      "ĠáĬµ": 3515,
      "áĭī": 3516,
      "áĪįáī¥áĪ": 3517,
      "áĪĺáĮ½áĪĲáįį": 3518,
      "áĭ°áĬħ": 3519,
      "áĪ°áĭµ": 3520,
      "áī£áĬķáī°": 3521,
      "Ġcr": 3522,
      "áīħáĭ«áĪµ": 3523,
      "utes": 3524,
      "ased": 3525,
      "Ġwithin": 3526,
      "áĬ°áĪ¨áī¥": 3527,
      "áĭİáī¹áĬķáĪĿ": 3528,
      "Ġstanding": 3529,
      "ĠBenjamin": 3530,
      "OT": 3531,
      "ced": 3532,
      "eal": 3533,
      "Ġ.": 3534,
      "Ġmar": 3535,
      "Ġáīłáĭļáĭ«": 3536,
      "áĭĵáīµ": 3537,
      "áī¡áĬĲ": 3538,
      "áĮŃáįįáĪ«": 3539,
      "Ġworship": 3540,
      "áĮķáĭµáĮĵ": 3541,
      "áĪĺáĪ¥áĭĭáĭķ": 3542,
      "áĪ³áĬ¦áĪįáĪĿ": 3543,
      "iat": 3544,
      "mer": 3545,
      "Ġsing": 3546,
      "áĭĪáĭ´áīµ": 3547,
      "ern": 3548,
      "áĮĭáĭµ": 3549,
      "Ġalong": 3550,
      "áĬłáī£áī¶áī»": 3551,
      "áĮ²áĪµáīĨ": 3552,
      "áĬłáĪĽáĪįáĬŃáīµ": 3553,
      "áĪ¸áĪĪáīĨ": 3554,
      "áĮ²áĪµáīĨáĮ¶": 3555,
      "áĬłáĪĺáĮ£": 3556,
      "áĪĪáĭ¨": 3557,
      "áĪĺáī±": 3558,
      "Ġburned": 3559,
      "áĪ«áī½áĬ¹": 3560,
      "Ġmer": 3561,
      "raid": 3562,
      "áĬ«áĪħáĬĳ": 3563,
      "áīĢáĪ¨áīł": 3564,
      "áĭĲáĪĿáĪ³": 3565,
      "Ġtwelve": 3566,
      "me": 3567,
      "ĠáĬĸáĪ¨": 3568,
      "áīµáĪŃ": 3569,
      "áīĢáĪį": 3570,
      "áĭĥáī¸áĭį": 3571,
      "áĬłáĬķáĭ³": 3572,
      "áīłáĬ¥áĪ³áīµ": 3573,
      "áĬ¸áĭį": 3574,
      "Ġsupp": 3575,
      "Ġopen": 3576,
      "áĪĪáĪ°": 3577,
      "áĭŃáĪµ": 3578,
      "áĭŃáĭŀ": 3579,
      "áĮłáĬĿ": 3580,
      "ason": 3581,
      "ĠLet": 3582,
      "áĬłáĪĿáĪĭáĬ¬": 3583,
      "Ġafraid": 3584,
      "áĭ°áĪµáī³": 3585,
      "aac": 3586,
      "áĭŃáīł": 3587,
      "áĬ¨áĪĿ": 3588,
      "ĠáīłáĪĨáĬĲ": 3589,
      "áĭ±áīµ": 3590,
      "áĬĳáīµ": 3591,
      "Ġanything": 3592,
      "ĠCanaan": 3593,
      "âĢ": 3594,
      "Ġsle": 3595,
      "áĭ«áī¸áĭį": 3596,
      "áĮįáĪİ": 3597,
      "áĪĽáĪĪ": 3598,
      "ĠáīłáĬł": 3599,
      "áĭİáĪµ": 3600,
      "áī¡áĪĿ": 3601,
      "abl": 3602,
      "áĪĪáī½áĭį": 3603,
      "áĭįáĭ«áĬķáĬķ": 3604,
      "áĬ«áĪħáĬĳáĪĿ": 3605,
      "áĪıáī¸áĭį": 3606,
      "gress": 3607,
      "Ġri": 3608,
      "áīłáĪķáĭŃáĭĪáīµ": 3609,
      "áĭ¨áĭĲ": 3610,
      "áĬĵáī½áĬ¹": 3611,
      "áī°áĬĲáĪ£": 3612,
      "Ġgather": 3613,
      "áĪŀáĬķáĪĿ": 3614,
      "áĬ¥áĬķáĭ²áĬ¾áĬķ": 3615,
      "ĠáĬ¥áĪŃáĪ±": 3616,
      "áĭŃáĪħáĬķáĪĿ": 3617,
      "Ġable": 3618,
      "áĮ¦áĪŃ": 3619,
      "Ġjudge": 3620,
      "Ġlamb": 3621,
      "Ġcross": 3622,
      "ures": 3623,
      "vation": 3624,
      "áĭ¨áĪį": 3625,
      "áĪ°áĭįáĬķ": 3626,
      "Ġmess": 3627,
      "Ġmaster": 3628,
      "Ġkilled": 3629,
      "áĭ¨áĪļáĭ«áĪµ": 3630,
      "Ġstones": 3631,
      "áĬªáĭ«": 3632,
      "Ġpasture": 3633,
      "ired": 3634,
      "oly": 3635,
      "ĠáĬĥ": 3636,
      "haz": 3637,
      "Ġtoo": 3638,
      "Ġmind": 3639,
      "Ġlab": 3640,
      "ĠáĪĶ": 3641,
      "Ġmeas": 3642,
      "Ġgoat": 3643,
      "Ġáī°áĮ¸": 3644,
      "áĬłáī£áī±": 3645,
      "ĠHimself": 3646,
      "Ġrul": 3647,
      "ĠJerem": 3648,
      "áīłáĪĿáĭµáĪ¨": 3649,
      "Ġcloud": 3650,
      "Ġsuch": 3651,
      "áĪłáĭĬáĭ«áĭį": 3652,
      "áīłáĭĵáĪį": 3653,
      "Ġjudgment": 3654,
      "Ġsanctu": 3655,
      "pe": 3656,
      "rise": 3657,
      "ting": 3658,
      "áīłáĪ°áĪĽ": 3659,
      "áĬłáĭĪáĮ£": 3660,
      "áĬ¨áĪŃ": 3661,
      "áįįáīµ": 3662,
      "áĪįáĮĬ": 3663,
      "Ġspread": 3664,
      "áīģáĪĿ": 3665,
      "áĬ¥áĬķáĭ³áīµ": 3666,
      "áĭĪáĬķáĭµáĪĿ": 3667,
      "Ġeveryone": 3668,
      "Ġdelive": 3669,
      "Ġheads": 3670,
      "áĪĿáĪŃáĬ®": 3671,
      "áĭ«áĭķáīĨáī¥áĪĿ": 3672,
      "áĪĿáĭµáĪª": 3673,
      "áĮĪáĬķáĭĺ": 3674,
      "Ġdarkness": 3675,
      "Ġestabl": 3676,
      "Ġáĭ«áĬķ": 3677,
      "ĠáĮĮáī³áī½áĬķ": 3678,
      "ream": 3679,
      "áī°áĬ½": 3680,
      "áĭ«áĭĿ": 3681,
      "ison": 3682,
      "áīĢáĪĪ": 3683,
      "áĮĭáĪĪáĬ¹": 3684,
      "áĪįáĮ½": 3685,
      "Ġread": 3686,
      "áĪ´áĪİ": 3687,
      "Ġdece": 3688,
      "áĭĻáĪªáĭ«": 3689,
      "áĭĪáĬķáĭ¶áī½": 3690,
      "ĠZion": 3691,
      "áī°áĬĵáĮĪáĪ¨áĭį": 3692,
      "ruction": 3693,
      "áĭ«áĭ°áĪŃáĮį": 3694,
      "áĬłáĬķáĭ²áīµ": 3695,
      "na": 3696,
      "áĬ¥áĭŃ": 3697,
      "onze": 3698,
      "áĪ¨áĮĥ": 3699,
      "Ġcrow": 3700,
      "áĮ¥áĪĭ": 3701,
      "ĠHoly": 3702,
      "ents": 3703,
      "Ġkill": 3704,
      "áĬ¢áīµ": 3705,
      "áĬĲáīłáĪ¨áī½": 3706,
      "Ġbronze": 3707,
      "Ġbelong": 3708,
      "ĠáĭķáĪĪáīµ": 3709,
      "Ġobser": 3710,
      "ircum": 3711,
      "áĬŃáĬķáĭ«áīµ": 3712,
      "ec": 3713,
      "sed": 3714,
      "áĬłáī¡áĬĲ": 3715,
      "hah": 3716,
      "áī£áī£áĭŃ": 3717,
      "áīĢáĬĵ": 3718,
      "ĠSh": 3719,
      "áīłáĪ°áĭŃáįį": 3720,
      "Ġknowledge": 3721,
      "áĭŃáĬ¾áĬĵáĪī": 3722,
      "áĪŃáĬ©áĪµ": 3723,
      "áĪ³áĬ¦áĪį": 3724,
      "band": 3725,
      "áĬłáĪŃáī£": 3726,
      "áĭŃáĪ¸": 3727,
      "áĪĺáīĥ": 3728,
      "reg": 3729,
      "ither": 3730,
      "ont": 3731,
      "Ġclean": 3732,
      "Ġdon": 3733,
      "Ġdri": 3734,
      "áĪĺáĪįáĪµ": 3735,
      "áĪĺáĪįáĬłáĬŃ": 3736,
      "Ġabove": 3737,
      "áĪ»áĪį": 3738,
      "Ġentered": 3739,
      "áĬ¥áĪµáĬŃáĬķáĭµáĪŃáĭ«": 3740,
      "that": 3741,
      "vest": 3742,
      "áīłáīł": 3743,
      "áĪĪáĬłáĬķáī°": 3744,
      "Ġdra": 3745,
      "áĪ³áįį": 3746,
      "áĪŀáī³": 3747,
      "key": 3748,
      "aled": 3749,
      "acher": 3750,
      "áī»áī¸áĭįáĬķ": 3751,
      "áĪĺáĪĪáĪ±": 3752,
      "áī·áĪįáĬĵ": 3753,
      "áīłáįĬáī±": 3754,
      "ĠáīłáĪ¨áĬ¨áī±áĪĿ": 3755,
      "áĬłáĪ³áĪįáįİ": 3756,
      "Ġtransgress": 3757,
      "Ġborder": 3758,
      "Ġdonkey": 3759,
      "áĭŃáĬĸáĪ«": 3760,
      "áĭĪáĭ²áĪħ": 3761,
      "Ġmoney": 3762,
      "áĬĽáĪįáĬĵ": 3763,
      "ĠáĪ¶": 3764,
      "ĠJon": 3765,
      "áī°áīĢáĪĺáĮ¡": 3766,
      "Ġhold": 3767,
      "Ġdesol": 3768,
      "Ġnorth": 3769,
      "áĬłáĬķáīłáĪ³": 3770,
      "áįĭáĬķáī³": 3771,
      "Ġmeeting": 3772,
      "Ġsanctuary": 3773,
      "HA": 3774,
      "áĭ«áĭ°áĪ¨áĮĪ": 3775,
      "Ġhop": 3776,
      "áĭĺáĪĺ": 3777,
      "Ġnation": 3778,
      "áĭ³áĪį": 3779,
      "áįĪáĪªáĭ«": 3780,
      "áĭ¨áī°áīĢáĭ°": 3781,
      "áĭĲáĭŃáĬĸ": 3782,
      "Ġanswer": 3783,
      "áīłáĮİáī½": 3784,
      "Ġsalvation": 3785,
      "su": 3786,
      "ses": 3787,
      "áĪĺáĮĭ": 3788,
      "seh": 3789,
      "asseh": 3790,
      "ĠTO": 3791,
      "áĪ¥áĪ«áīħ": 3792,
      "áĬ»áĪįáĬĵ": 3793,
      "Ġbull": 3794,
      "áī°áĬĵáĮĪáĪŃ": 3795,
      "Ġcarried": 3796,
      "Ġbelieve": 3797,
      "Ġdescendants": 3798,
      "áĬķáĮ¹áĪķ": 3799,
      "ĠJeremiah": 3800,
      "To": 3801,
      "Ġ________": 3802,
      "áĪĿáĭ±": 3803,
      "áĪĺáĮį": 3804,
      "Ġmult": 3805,
      "áĬ¥áĮįáĪŃ": 3806,
      "___": 3807,
      "áįĪáĪŃáĭĸáĬķ": 3808,
      "_______": 3809,
      "áī£áĪĪáĮł": 3810,
      "Ġpraise": 3811,
      "áĪįáĮĬáĭľ": 3812,
      "Ġ_______________": 3813,
      "ED": 3814,
      "Ġáī½": 3815,
      "Ġtab": 3816,
      "Ġap": 3817,
      "áīµáĬ¾áĬĵ": 3818,
      "áĬ¨áĪĿáĭµáĪŃ": 3819,
      "áĬ¨áĪ°áĪĽáĭŃ": 3820,
      "Ġpie": 3821,
      "lease": 3822,
      "áĮ½áĭ®áĬķ": 3823,
      "Ġdefe": 3824,
      "ĠDan": 3825,
      "Ġspeaking": 3826,
      "ney": 3827,
      "áīłáĬ¥áĮįáĭļáĬłáī¥áĪĶáĪŃáĪĿ": 3828,
      "Ġmin": 3829,
      "Ġhid": 3830,
      "Ġhus": 3831,
      "áįįáĪ¨": 3832,
      "Ġsake": 3833,
      "áĭ°áĪ¨áĮī": 3834,
      "áĬłáĭµáĪŃáĮį": 3835,
      "Ġguard": 3836,
      "ized": 3837,
      "ĠManasseh": 3838,
      "áĪĿáĪķáĪ¨": 3839,
      "ĠWILL": 3840,
      "syri": 3841,
      "Ġthirty": 3842,
      "Al": 3843,
      "After": 3844,
      "cc": 3845,
      "ial": 3846,
      "of": 3847,
      "ĠáĬĲáĮĪ": 3848,
      "áĪĿáĪ³áĪĮ": 3849,
      "áĬ¨áĬ¥": 3850,
      "áĭĪáĮį": 3851,
      "Ġcal": 3852,
      "Ġcong": 3853,
      "Ġcause": 3854,
      "ĠLaw": 3855,
      "áĭĭáĪĪáĬ½": 3856,
      "áĭĵáĭĽ": 3857,
      "iles": 3858,
      "áĪłáīĥ": 3859,
      "áī½áĬķáĬķ": 3860,
      "áĬ¸áĬĿ": 3861,
      "ilead": 3862,
      "áĭªáī±": 3863,
      "cious": 3864,
      "áĪ°áĮ£áī¸áĭį": 3865,
      "Ġrepro": 3866,
      "ĠáĬ¤áĮ²áĪµáīĨáĮ¶": 3867,
      "áĮ´áĮ¥áĪ®áĪµ": 3868,
      "Ġáī°áĮ¸áĪĿáĭ±": 3869,
      "Ġdelivered": 3870,
      "ĠáĬ¥áĪµ": 3871,
      "áīłáīĥ": 3872,
      "áī½áĪį": 3873,
      "áī¥áĪ®": 3874,
      "áĭķáĪ¨": 3875,
      "ĠáĬ¨áī°áĪĽ": 3876,
      "áĬ¥áĪµáĪ«áĬ¤áĪįáĪĿ": 3877,
      "áĬ¥áĬķáĭ³áĪį": 3878,
      "ĠOne": 3879,
      "Ġshek": 3880,
      "áī£áĪªáĭ«áĬ½": 3881,
      "Ġcommandments": 3882,
      "áĪĺáĮ¥áī¶": 3883,
      "Ġáī°áĮ¸áĪĿáĭ±áĬ¨": 3884,
      "áīłáī¤": 3885,
      "áĪŃáĬĵ": 3886,
      "áĬ¨áĪ©": 3887,
      "Ġfilled": 3888,
      "áĪĽáĪĿ": 3889,
      "ĠáĬłáĭµáĪŃ": 3890,
      "áĬ¤áĪŃáĪĿ": 3891,
      "áĬ¥áĬķáĭ²áĭ«": 3892,
      "áī»áī½áĬ¹": 3893,
      "ĠNeb": 3894,
      "ĠAssyri": 3895,
      "áĭ«áĭ°áĪŃáĮī": 3896,
      "Ġfamily": 3897,
      "Ġtestimon": 3898,
      "Ġrefu": 3899,
      "Ġes": 3900,
      "áĪŃáĪ³": 3901,
      "áĪĽáĬħ": 3902,
      "ĠáĭŃáĮįáī£": 3903,
      "áĬĢáĭ«": 3904,
      "áĪ¸áĪ¸": 3905,
      "áĮĪáĪĪáĭĵ": 3906,
      "áĬ¢áĭ®áĬłáī¥": 3907,
      "Ġperfor": 3908,
      "ĠáĭŃáĪħáĪĿ": 3909,
      "Ġreceive": 3910,
      "Ġcourt": 3911,
      "áĬ¢áīµáĭ®": 3912,
      "Ġhusband": 3913,
      "Ġcongreg": 3914,
      "Ġáī¤áīµ": 3915,
      "áį²": 3916,
      "áĬłáĬ«": 3917,
      "har": 3918,
      "Ġfine": 3919,
      "áĭħáĪīáĬķ": 3920,
      "ĠáĬ¨áī¥": 3921,
      "Ġlives": 3922,
      "ĠPaul": 3923,
      "ĠPeter": 3924,
      "Ġcommit": 3925,
      "Ġbreak": 3926,
      "Ġstatutes": 3927,
      "Ġperson": 3928,
      "Ġindeed": 3929,
      "ircumc": 3930,
      "ten": 3931,
      "Ġáīħ": 3932,
      "ĠNow": 3933,
      "áīłáī³áĪį": 3934,
      "áĬłáī¢": 3935,
      "áīµáĭķ": 3936,
      "áĪįáĬŃ": 3937,
      "áĭŃáĭĪáĮ£": 3938,
      "áī¸áĭįáĬķáĪĿ": 3939,
      "áįĪáĪįáĮ": 3940,
      "áĪķáįĥ": 3941,
      "áĪĺáĬķáįĪ": 3942,
      "acle": 3943,
      "Ġalone": 3944,
      "áĭŃáĭĪáĭµ": 3945,
      "Ġevening": 3946,
      "áĪĺáĮłáĬķ": 3947,
      "Ġglad": 3948,
      "áĪ¥áĪŃáĭĲáīµ": 3949,
      "ĠáĬµáĪī": 3950,
      "Ġcongregation": 3951,
      "HO": 3952,
      "eem": 3953,
      "Ġáī´áĭİ": 3954,
      "ises": 3955,
      "Ġtong": 3956,
      "Ġhalf": 3957,
      "áĭİáī½áĬķáĪĿ": 3958,
      "áĭįáĬķáĬĵ": 3959,
      "Ġatt": 3960,
      "ify": 3961,
      "áĬĲáīłáĪ©áīµ": 3962,
      "áĪĿáĪµáĬŃáĪŃ": 3963,
      "Ġlooked": 3964,
      "ĠáĪ°áĪĽáĭķáī³áīµ": 3965,
      "áīłáįĬáīµáĬ½": 3966,
      "Ġterr": 3967,
      "ĠáĭŃáĮįáī£áĭįáĬĵ": 3968,
      "ier": 3969,
      "áį¯": 3970,
      "áĬłáīł": 3971,
      "áĬ¨áĪĻ": 3972,
      "áĪ°áīł": 3973,
      "Ġport": 3974,
      "áĭ±áĬķ": 3975,
      "ĠáĪĮ": 3976,
      "Ġdoing": 3977,
      "áĪĬáīĢ": 3978,
      "áĪ¶áĪŃáĭ«": 3979,
      "Ġprophes": 3980,
      "Ġappear": 3981,
      "Ġordin": 3982,
      "áĪ°áĪİáĪŀáĬķ": 3983,
      "Ġpoor": 3984,
      "áĭķáĬķáĮ¨áīµ": 3985,
      "Ġhonor": 3986,
      "ĠáĭĲáĪ¥áĪ«": 3987,
      "Ġtou": 3988,
      "áĪĪáī¥": 3989,
      "áĬĲáĬķ": 3990,
      "áĬ¨áĬĵ": 3991,
      "Ġfav": 3992,
      "Ġhor": 3993,
      "áĪħáĭ«": 3994,
      "áįĪáĪ°": 3995,
      "áī±áĬĵ": 3996,
      "iled": 3997,
      "áĭĪáĬķáĭĿ": 3998,
      "áĮ¹áĪĿ": 3999,
      "Ġthanks": 4000,
      "áĭĪáĪ°áĭ°": 4001,
      "Ġrejoice": 4002,
      "ĠáĪ³": 4003,
      "Ġáī³áĪĭáīħ": 4004,
      "áĬłáĮłáįĭ": 4005,
      "áĬ¥áī£": 4006,
      "áī¥áĪĪáĬ½": 4007,
      "áī°áĭĭáĪį": 4008,
      "áĭĪáĪ«áīµ": 4009,
      "Ġbird": 4010,
      "oreover": 4011,
      "áĮ½áĭĭ": 4012,
      "áīµáĪĿáĪħáĪŃ": 4013,
      "áĬłáĪįáĬĲáīłáĪ¨": 4014,
      "Ġval": 4015,
      "áīĪáĪ¨": 4016,
      "ĠáĪįáĪĴ": 4017,
      "Ġfirstborn": 4018,
      "Ġcarry": 4019,
      "áĪĮáĭĭáĭįáĭ«áĬķ": 4020,
      "Ġnamed": 4021,
      "áīłáī³áĪĭáīħ": 4022,
      "áĪįáĭ°": 4023,
      "Ġwood": 4024,
      "áĬ¨áĬ¥áĬĽ": 4025,
      "áī³áī¦áīµ": 4026,
      "ĠHam": 4027,
      "áĬĢáĬĴ": 4028,
      "áĮŃáĬķ": 4029,
      "Ġprom": 4030,
      "Ġneigh": 4031,
      "áĬ¥áĪĭáī½áĭĥáĪĪáĬ¹": 4032,
      "áĪ°áīłáĪ°áī¡": 4033,
      "áĭŃáĪĺáĮ£áĪį": 4034,
      "Ġwitness": 4035,
      "lot": 4036,
      "man": 4037,
      "per": 4038,
      "ww": 4039,
      "áĭįáĮ£": 4040,
      "oured": 4041,
      "Ġce": 4042,
      "áīĢáĬĿ": 4043,
      "ĠáīłáĭķáĭĿ": 4044,
      "ush": 4045,
      "áĪŃáĪ±áĬķ": 4046,
      "Ġdec": 4047,
      "áĬ©áįĪ": 4048,
      "ĠDo": 4049,
      "áĪ¶áĪŃ": 4050,
      "ump": 4051,
      "áĪĪáĬ½áĬķ": 4052,
      "ĠáĭįáĬ©áįĪ": 4053,
      "ĠJoab": 4054,
      "ĠáĪĪáĭĺáĬłáĬķáīłáī¦": 4055,
      "Ġjustice": 4056,
      "áĭĪáĪĪáĭ°áī½": 4057,
      "áĭĪáĪ¨áĭ°": 4058,
      "ĠáĬłáī¥áĬ¡": 4059,
      "ĠáĭĪáĬķáĬ¡áĪµ": 4060,
      "ĠáĭĪáĪĺáĬĲáĬ°áĪ³áīµ": 4061,
      "áĪįáĮ½áĮįáĬĵáī¸áĭį": 4062,
      "Ġhope": 4063,
      "ĠáĬ¨áī¥áĪįáĮ½áĮįáĬĵáī¸áĭį": 4064,
      "ĠáĪįáĪĴáīħ": 4065,
      "ĠáīłáĭķáĭĿáĬĲ": 4066,
      "ian": 4067,
      "áĭ¢": 4068,
      "Ġtable": 4069,
      "áĭ«áĭĪáĮ£": 4070,
      "áĭ«áĬ½áĪį": 4071,
      "áĭĪáĭ²áĭ«": 4072,
      "Ġfin": 4073,
      "áī£áĪĭ": 4074,
      "ĠMount": 4075,
      "Ġfront": 4076,
      "Ġlif": 4077,
      "áĮ¸áĮĭ": 4078,
      "áĬĲáīłáĪ¨áĭį": 4079,
      "áī³áĪĭáĪĭ": 4080,
      "Ġservice": 4081,
      "Ġtrust": 4082,
      "ĠFrom": 4083,
      "áĭĪáĭ³áĬķáī°": 4084,
      "áīłáĪ°áĪĽáĭŃ": 4085,
      "áĭŃáĪĭ": 4086,
      "áī£áī½áĬ¹": 4087,
      "áĪ³áĪĪáĬ¹": 4088,
      "áĭĪáĭ°áĪļ": 4089,
      "áĪ¥áĪĲ": 4090,
      "ĠBE": 4091,
      "Ġáĭ°áĪµ": 4092,
      "Ġneed": 4093,
      "áįĪáĪŃáĭĸ": 4094,
      "áīłáĭ°áĪį": 4095,
      "áĪĺáĪ°áĮĪ": 4096,
      "ĠSamar": 4097,
      "áĪ½áĪĽáĮįáĪĮáĭİáī½": 4098,
      "Ġunderstanding": 4099,
      "Ġrelat": 4100,
      "áĬ°áĪ¨áī¥áī³": 4101,
      "pher": 4102,
      "áīłáĭįáĪĥ": 4103,
      "Ġlar": 4104,
      "irth": 4105,
      "áĭħáĪįáĮĬáĭľ": 4106,
      "ĠSe": 4107,
      "Ġjour": 4108,
      "ĠWith": 4109,
      "Ġprof": 4110,
      "áĬłáĪµáīĢáĭµáĪŀ": 4111,
      "áĬķáĮīáĪ¡áĬķ": 4112,
      "áĭ³áĭĬáīµáĬķ": 4113,
      "Ġfled": 4114,
      "Ġrock": 4115,
      "Ġworks": 4116,
      "Ġbroken": 4117,
      "áĭ®áĪŃáĭ³áĬĸáĪµ": 4118,
      "Ġfavor": 4119,
      "Ġneighb": 4120,
      "From": 4121,
      "aph": 4122,
      "ba": 4123,
      "ĠáĬ¹": 4124,
      "áĬłáĭĺ": 4125,
      "áĬ¨áĬ¥áĬķáĮįáĭ²áĪħ": 4126,
      "Ġfal": 4127,
      "Ġmour": 4128,
      "áĬŃáįĭáīµ": 4129,
      "áĬ¥áĮįáĪ®": 4130,
      "ĠAd": 4131,
      "Ġwhoever": 4132,
      "áīĨáĪĻ": 4133,
      "áī°áīĢáĪĿ": 4134,
      "áīłáĬłáĪķáĭĽáī¥": 4135,
      "áĬ¥áĬķáĮįáĭ³": 4136,
      "Ġbook": 4137,
      "áĬłáĭ¨áĬ¹": 4138,
      "ĠSamuel": 4139,
      "Ġidols": 4140,
      "IS": 4141,
      "cy": 4142,
      "ĠáīĥáĪį": 4143,
      "áīłáĪ°áĭį": 4144,
      "áĬłáĭ³": 4145,
      "áĪĪáĬ¥áĬĶ": 4146,
      "áĬĲáīµáĪĿ": 4147,
      "áĬ¨áĬłáī£": 4148,
      "áĭĪáĭ®": 4149,
      "Ġfat": 4150,
      "áĭĪáĭ°áĭ°": 4151,
      "Ġcomple": 4152,
      "Ġáĭ«áĪĪ": 4153,
      "Ġwhatever": 4154,
      "áĪĺáĪµáįĪáĪªáĭ«": 4155,
      "itting": 4156,
      "áīĢáĪ¨áī¡": 4157,
      "zekiah": 4158,
      "áĭĪáĪµáĭ¶": 4159,
      "Ġpossession": 4160,
      "áĬ¤áįįáĪ¬áĪĿ": 4161,
      "Ġtabern": 4162,
      "ĠAssyria": 4163,
      "TH": 4164,
      "áĪĳ": 4165,
      "áīłáĪŃáĪ±áĪĿ": 4166,
      "áĭ¨áĪłáĪ«": 4167,
      "áĭŃáĪĺ": 4168,
      "áĬĲáī±": 4169,
      "áī¥áĭ¬": 4170,
      "áĪ«áĪ³": 4171,
      "áī£áĭ¨": 4172,
      "Ġpun": 4173,
      "áĬ¥áĮįáĭļáĬłáī¥áĪĶáĪŃáĬķáĪĿ": 4174,
      "áī¶áī½áĬķ": 4175,
      "ĠáĪĢ": 4176,
      "Ġreason": 4177,
      "áĬ¥áĬĶáĬķ": 4178,
      "ĠEs": 4179,
      "áĬ¢áĭ«áĪ±": 4180,
      "Ġreceived": 4181,
      "Ġincense": 4182,
      "Ġregard": 4183,
      "hn": 4184,
      "ook": 4185,
      "áĬłáĮį": 4186,
      "áĬłáĮ¥": 4187,
      "áĬłáĪĭáīµ": 4188,
      "áĬ¥áĪ°áĮ£": 4189,
      "Ġfle": 4190,
      "áĮĪáĪ©": 4191,
      "áĪ¨áĮį": 4192,
      "áīĢáĪĭ": 4193,
      "áī¶áī¼": 4194,
      "ils": 4195,
      "áĭ®áī½": 4196,
      "Ġlie": 4197,
      "áĬ¥áĪµáĪ«áĬ¤áĪįáĬķ": 4198,
      "áĪľáĭ³": 4199,
      "ĠáĪģáĪĪ": 4200,
      "Ġgives": 4201,
      "Ġharlot": 4202,
      "Ġtrees": 4203,
      "Ġjourney": 4204,
      "fied": 4205,
      "ĠáĭµáĪ¨áĪµ": 4206,
      "Ġtrou": 4207,
      "áĬ¥áĭįáĬĲ": 4208,
      "áĭ«áĮłáįĭ": 4209,
      "áĪ°áīħáĪį": 4210,
      "áĪ«áĪĪáĬ¹": 4211,
      "áĪŀáĭĲáī¥": 4212,
      "ĠáĪĺáĬ°áĬķ": 4213,
      "áĭĽáī¸áĭį": 4214,
      "áĬłáĪĪáī½": 4215,
      ".\"'": 4216,
      "áīĨáĪĺ": 4217,
      "áīłáĪĺáīħ": 4218,
      "áīłáī°áĪ«áĪ«": 4219,
      "Ġáį³": 4220,
      "ĠAmmon": 4221,
      "Ġconsum": 4222,
      "Ġhouseholds": 4223,
      "Ġwait": 4224,
      "Ġprinces": 4225,
      "áįĢáĪĵáĭŃ": 4226,
      "Ġfalse": 4227,
      "Ġtabernacle": 4228,
      "hich": 4229,
      "sal": 4230,
      "áīłáĬŃáĪŃáĪµáī¶áĪµ": 4231,
      "áĭ«áĬĸáĪµ": 4232,
      "áĬ¨áīł": 4233,
      "áĬ¨áī¶": 4234,
      "Ġmo": 4235,
      "áĭļáĬł": 4236,
      "ĠáīłáĭļáĪħ": 4237,
      "Ġgif": 4238,
      "áīĥáĮ¥": 4239,
      "áīĥáĪĪáĬ¹": 4240,
      "ĠáĪ¦": 4241,
      "ĠHeb": 4242,
      "áĪĺáĪįáĬŃ": 4243,
      "áĬªáĭ³": 4244,
      "áīłáĬ¥áĮģ": 4245,
      "Ġthroughout": 4246,
      "claim": 4247,
      "áĭĺáĪ¨áĮĭ": 4248,
      "Ġassembly": 4249,
      "Ġesc": 4250,
      "No": 4251,
      "Take": 4252,
      "Yet": 4253,
      "oc": 4254,
      "Ġtra": 4255,
      "áĬ¥áĪį": 4256,
      "áī¥áĭĽáīµ": 4257,
      "áī£áī£": 4258,
      "Ġcried": 4259,
      "ĠáīłáĪ°áĪĽáĭķáīµáĬĲáīµ": 4260,
      "ĠAll": 4261,
      "Ġshame": 4262,
      "Ġoutside": 4263,
      "aked": 4264,
      "Ġabomin": 4265,
      "áĮ¨áĬķ": 4266,
      "áīłáĪŃáĪ·": 4267,
      "áĪĺáīħáĭ°áĪµ": 4268,
      "áĮłáĪŃáī¶": 4269,
      "Ġnumbered": 4270,
      "áįĪáĮ¸áĪĺ": 4271,
      "Jesus": 4272,
      "Moreover": 4273,
      "air": 4274,
      "ĠáĮ½": 4275,
      "áĭįáĮŃ": 4276,
      "áĭŃáĬĲ": 4277,
      "Ġtor": 4278,
      "Ġcoun": 4279,
      "Ġlamp": 4280,
      "áĮ¥áįĭáīµ": 4281,
      "áĬ½áĬĵ": 4282,
      "Ġfort": 4283,
      "ĠáĪĻ": 4284,
      "ached": 4285,
      "áīĨáĪĿ": 4286,
      "áĬłáĬķáĭ°": 4287,
      "hile": 4288,
      "Ġfoot": 4289,
      "tend": 4290,
      "Ġtreas": 4291,
      "Ġrebu": 4292,
      "áĪĪáĬĿ": 4293,
      "áĬĵáī¡": 4294,
      "áĮįáĭµ": 4295,
      "eng": 4296,
      "ĠáĬłáĬŃáĪĬ": 4297,
      "ored": 4298,
      "Ġaside": 4299,
      "ĠHezekiah": 4300,
      "áīįáĮ¥áĪŃ": 4301,
      "áĪĪáī½áĬĵ": 4302,
      "áĬµáĪ°": 4303,
      "Ġslain": 4304,
      "áĪ°áī¥áĪµ": 4305,
      "uthor": 4306,
      "ĠáĬ¥áĮħáĮį": 4307,
      "Ġcharge": 4308,
      "Ġauthor": 4309,
      "áĬłáĮĭ": 4310,
      "áĭŃáĪ°áĮ£": 4311,
      "áī°áĬ¨áī°": 4312,
      "áįįáīħáĪŃ": 4313,
      "Ġwives": 4314,
      "áĭĪáĭ°áīĢ": 4315,
      "Ġeight": 4316,
      "áĪĺáĪįáĬ¥áĬŃ": 4317,
      "áĬłáĭŃáĭ°áĪĪáĪĿáĬķ": 4318,
      "áĭĪáĮ¥áī¶": 4319,
      "áĬĲáįĭáĪµ": 4320,
      "áĭ°áĬħáĬķ": 4321,
      "ĠSamaria": 4322,
      "Ġescap": 4323,
      "cl": 4324,
      "áĪĪáĬ¥áĬĵáĬķáī°": 4325,
      "iness": 4326,
      "Ġscri": 4327,
      "áĭ¨áĮĮáī³": 4328,
      "áĬ¨áįĬ": 4329,
      "áĭļáĭ«áĬķ": 4330,
      "Ġhors": 4331,
      "áĮłáī¢": 4332,
      "Ġfors": 4333,
      "Ġreve": 4334,
      "áĬĲáĮĪáĪ¨": 4335,
      "áĮ»áĪľ": 4336,
      "áĬ©áĪĮ": 4337,
      "Ġleave": 4338,
      "ĠáĮĪáĭ³áĪĿ": 4339,
      "ĠJohn": 4340,
      "áĬķáĭ«áĪĿ": 4341,
      "áĪ°áĪĽáĭ«áīµ": 4342,
      "Ġhorses": 4343,
      "She": 4344,
      "áĬĵáĬķ": 4345,
      "áī°áĮł": 4346,
      "ances": 4347,
      "ided": 4348,
      "áĭİáĬķ": 4349,
      "áĪ¥áĪį": 4350,
      "Ġsave": 4351,
      "áĪłáĭĭ": 4352,
      "áĪ´áī²": 4353,
      "ĠIsaac": 4354,
      "áĭĥáī½áĬ¹": 4355,
      "áĬ¥áĮħáĬ½": 4356,
      "ĠNOT": 4357,
      "áīĪáĮ£": 4358,
      "áįĪáĪ¨áĪ°": 4359,
      "Ġraised": 4360,
      "Ġmakes": 4361,
      "áĪįáī¥áĪ±": 4362,
      "Ġlarge": 4363,
      "uri": 4364,
      "Ġaw": 4365,
      "áĬĲáī¢áĭ«": 4366,
      "áī¥áĬ½": 4367,
      "áĪ«áĪī": 4368,
      "orrow": 4369,
      "áī£áĭµáĪĽ": 4370,
      "Ġnone": 4371,
      "Ġáĭ¨áĪĨ": 4372,
      "áĭĲáĪµ": 4373,
      "Ġkne": 4374,
      "orns": 4375,
      "áĪĿáĪµáĮĭáĬĵ": 4376,
      "áĪ¯áī¸áĭį": 4377,
      "áĭĺáĮĭáĮĢ": 4378,
      "Ġgates": 4379,
      "Ġpleas": 4380,
      "Ġoppress": 4381,
      "lasting": 4382,
      "up": 4383,
      "xt": 4384,
      "áīłáĪĺáĬķáĮĪáĭµ": 4385,
      "áĭ¨áĭĪáĪŃáīħ": 4386,
      "Ġbirth": 4387,
      "Ġfree": 4388,
      "isha": 4389,
      "áĮłáĮķ": 4390,
      "áĪ®áĪµáĪĿ": 4391,
      "áĪĺáĬķáĭ°": 4392,
      "áĪ¬áīµ": 4393,
      "áĬ«áĪħáĬķ": 4394,
      "áī½áĭĥáĪįáĬĵ": 4395,
      "áĬłáĭµáĪŃáĮĪ": 4396,
      "Ġexp": 4397,
      "áĬ¨áī°áĪĽáĭªáī±": 4398,
      "Ġgarments": 4399,
      "Ġpillars": 4400,
      "áĭļáĬłáī¥áĪĶáĪŃ": 4401,
      "oe": 4402,
      "yond": 4403,
      "áĪĪáĪŃáĪ±": 4404,
      "áĪµáĮ¦": 4405,
      "Ġsub": 4406,
      "áĭŃáĭĺ": 4407,
      "áĪĺáīµ": 4408,
      "áĭ«áīĢáĪŃ": 4409,
      "Ġdust": 4410,
      "Ġpit": 4411,
      "áĬŃáįĪ": 4412,
      "áĬŃáįįáĪį": 4413,
      "ĠHA": 4414,
      "Ġfrie": 4415,
      "Ġoffered": 4416,
      "áĭ¨áĪĿáī³": 4417,
      "áĬłáĭµáĪŃáĮĮ": 4418,
      "áĮ³áĭįáĪİáĪµ": 4419,
      "Ġhearts": 4420,
      "Ġshout": 4421,
      "Ġopened": 4422,
      "áĬłáĭ°áī£áī£áĭŃ": 4423,
      "áĪĿáĪįáĬŃáīµ": 4424,
      "áįĪáīĥáĭµ": 4425,
      "ĠTherefore": 4426,
      "Ġfriend": 4427,
      "RE": 4428,
      "yard": 4429,
      "Ġáĭ²": 4430,
      "ĠáĮĮáī³": 4431,
      "áĪĪáīĢ": 4432,
      "áĭ¨áīµ": 4433,
      "áĭŃáĮłáįĭ": 4434,
      "áĬĵáĭį": 4435,
      "edge": 4436,
      "áįĪáĮł": 4437,
      "áī¹áĬķáĪĿ": 4438,
      "Ġabund": 4439,
      "Ġcover": 4440,
      "Ġdesp": 4441,
      "áĬ¹áĪĪáī°áĬĽ": 4442,
      "Ġcare": 4443,
      "Ġtribes": 4444,
      "áĬĲáī¢áĭ©": 4445,
      "Ġvineyard": 4446,
      "ĠJonathan": 4447,
      "áĪĺáĮĭáĪ¨áĮĥ": 4448,
      "áįĪáĪįáĮī": 4449,
      "Ġpunish": 4450,
      "Ġcounsel": 4451,
      "aut": 4452,
      "Ġáī¢": 4453,
      "áĮª": 4454,
      "áīłáĪ°áī£": 4455,
      "áīłáĬķáĮīáĪ¡": 4456,
      "Ġsister": 4457,
      "Ġba": 4458,
      "Ġcle": 4459,
      "áĭĲáĪį": 4460,
      "ĠáĪ´": 4461,
      "áĬĳáĬķáĪĿ": 4462,
      "áĭ¨áī°áīĢ": 4463,
      "áĬ¥áĬķáĭ³áĪĪ": 4464,
      "Ġrise": 4465,
      "áĪ°áĭİáī½áĪĿ": 4466,
      "áīįáĪŃ": 4467,
      "áī·áĪĿ": 4468,
      "Ġexal": 4469,
      "áĬŃáĪŃáĪµáī²áĭ«áĬķ": 4470,
      "áī°áĬĲáĪ¥áī¶": 4471,
      "Ġdistress": 4472,
      "Ġeverlasting": 4473,
      "Ġclothes": 4474,
      "Ġseventh": 4475,
      "Come": 4476,
      "ĠáĪĿáĬķ": 4477,
      "áĪĪáīµáĪĿ": 4478,
      "áĭŃáĬĵáĮĪ": 4479,
      "áĪĽáĪ³": 4480,
      "omp": 4481,
      "Ġbeyond": 4482,
      "áĮłáįī": 4483,
      "áĪ©áĬķáĪĿ": 4484,
      "áĪŀáĮĪ": 4485,
      "Ġstret": 4486,
      "aced": 4487,
      "Ġhouses": 4488,
      "Ġtrump": 4489,
      "áĬĥáĮ¥": 4490,
      "áĮ®áĬ¹": 4491,
      "áĬłáĪĿáĪĭáĬ«áī½áĬ¹": 4492,
      "Ġbegin": 4493,
      "Ġfaithful": 4494,
      "Ġhappened": 4495,
      "bed": 4496,
      "iol": 4497,
      "áĪĿáĬŃáĬķáĭ«áīµ": 4498,
      "áĬĲáĮ»": 4499,
      "áĮįáĬĵ": 4500,
      "áĪ°áĪįáįį": 4501,
      "Ġcreat": 4502,
      "áĮĭáīµ": 4503,
      "lech": 4504,
      "áĪ¥áī¶": 4505,
      "iced": 4506,
      "áīģáīµ": 4507,
      "áĮ¨áĬĲ": 4508,
      "áīĪáĪŃ": 4509,
      "áĬĢáĮ¢áĬłáī°áĬĽ": 4510,
      "Ġbetter": 4511,
      "áī°áĪĺáĪĪáĪ±": 4512,
      "Ġchur": 4513,
      "áĬłáĭ°áĪŃáĮĭáĪĪáĬ¹": 4514,
      "Ġbeside": 4515,
      "Ġwhether": 4516,
      "Ġchariots": 4517,
      "Ġmesseng": 4518,
      "Ġlifted": 4519,
      "Ġ3": 4520,
      "áīłáĮĮáī³": 4521,
      "Ġsouth": 4522,
      "áĮĪáĬĽ": 4523,
      "áĮĪáĭ¢": 4524,
      "áĪĽáĭ°áĪªáĭ«": 4525,
      "Ġpal": 4526,
      "áĪīáĬķ": 4527,
      "arm": 4528,
      "áĭ³áī½áĬ¹": 4529,
      "Ġweep": 4530,
      "Ġgoes": 4531,
      "áĪ¶áĬķ": 4532,
      "Ġproclaim": 4533,
      "ĠáĪģáĪĪáīµ": 4534,
      "áĬłáĭµáĪŃáĮī": 4535,
      "áĮĪáĬĵáĬĽáĭį": 4536,
      "ully": 4537,
      "Ġremember": 4538,
      "áīµáĭįáĪįáĭµ": 4539,
      "secr": 4540,
      "),": 4541,
      "sen": 4542,
      "áĭ»": 4543,
      "Ġsit": 4544,
      "áĭ¨áĬ¤": 4545,
      "áĭŃáīħáĪŃ": 4546,
      "áĭ«áĭµ": 4547,
      "ĠáīłáĪĽ": 4548,
      "Ġsab": 4549,
      "Ġwhy": 4550,
      "Ġsold": 4551,
      "áĪĺáĮ¥áī°áĭį": 4552,
      "Ġwickedness": 4553,
      "Ġcompass": 4554,
      "Ġrebell": 4555,
      "Ġgenerations": 4556,
      "Ġreigned": 4557,
      "ĠáĪ¦áĪµáīµ": 4558,
      "Ġáīģ": 4559,
      "Ġsick": 4560,
      "áĭŃáĪ¥áĪĲ": 4561,
      "áĬĵáī¸áĭįáĪĿ": 4562,
      "áī°áĭĪ": 4563,
      "Ġcor": 4564,
      "áī³áĪįáĬĵ": 4565,
      "Ġlast": 4566,
      "áĬŃáįĭ": 4567,
      "ates": 4568,
      "áĭ³áī¤": 4569,
      "ote": 4570,
      "aying": 4571,
      "hath": 4572,
      "Ġforty": 4573,
      "áĪŀáī½": 4574,
      "áī¤áĪ´áĪİ": 4575,
      "ĠSha": 4576,
      "áĬłáĪįáĭĵáĭĽ": 4577,
      "áĪ¶áī½": 4578,
      "ĠáĮĬáĭľáĪĿ": 4579,
      "áĮįáī¥áĮ»": 4580,
      "Ġsinned": 4581,
      "ung": 4582,
      "Ġperish": 4583,
      "áĭ«áĭ°áĪŃáĮĭáĪį": 4584,
      "ĠYOUR": 4585,
      "zzar": 4586,
      "Ġlabor": 4587,
      "Ġtestimony": 4588,
      "salom": 4589,
      "Ġsabbath": 4590,
      "áĭŁ": 4591,
      "áĪĿáĪªáĭ«": 4592,
      "áīłáĭĿ": 4593,
      "áĬ¥áĬħ": 4594,
      "áī¥áĪĪ": 4595,
      "áĭµáĪ«": 4596,
      "Ġfast": 4597,
      "áī£áĪ¨áĬ¨": 4598,
      "Ġdream": 4599,
      "áĮĭáī½áĬ¹": 4600,
      "ĠAl": 4601,
      "áĭİáī»áī¸áĭį": 4602,
      "ĠGilead": 4603,
      "áĪªáĪ³": 4604,
      "Ġlips": 4605,
      "áĪĭáī¸áĭįáĬķ": 4606,
      "áĭ«áĪµáĬķ": 4607,
      "áĬŃáĪŃáĪµáī¶áĪµáĬķ": 4608,
      "Ġdesire": 4609,
      "áĬ¥áĬĲáĭļáĪħáĬķ": 4610,
      "áī´áĭİáĪµ": 4611,
      "Ġchosen": 4612,
      "áĭķáĭµáĪľ": 4613,
      "ING": 4614,
      "ĠBaal": 4615,
      "Ġauthority": 4616,
      "!'": 4617,
      "His": 4618,
      "Se": 4619,
      "áīłáĬ¢áĭ¨áĪ±áĪµ": 4620,
      "Ġwest": 4621,
      "áĭ°áĭĮ": 4622,
      "áĬ¨áĭ°áĬĲ": 4623,
      "Ġfight": 4624,
      "áī³áī½": 4625,
      "Ġbeaut": 4626,
      "áĭ³áĮįáĪĺáĬĽ": 4627,
      "ĠáĪĺáĪĪ": 4628,
      "ĠáĪĺáī¶": 4629,
      "ains": 4630,
      "Ġdeal": 4631,
      "ĠEdom": 4632,
      "áĬ¥áĬķáĭ³áĭĺ": 4633,
      "Ġviol": 4634,
      "ĠWill": 4635,
      "áĪµáĬķáĬ³": 4636,
      "áĬ¥áĬĽáĪĿ": 4637,
      "Ġcond": 4638,
      "áĪĺáĪ°áĪĿáĪªáĭ«": 4639,
      "Ġgrace": 4640,
      "umble": 4641,
      "Ġslaught": 4642,
      "ĠáĬ¨áĬ¥áĪŃáĪ±": 4643,
      "mediat": 4644,
      "áĭ¨áĬĲáīłáĪ¨áĭįáĬķ": 4645,
      "Ġtongue": 4646,
      "Ġneighbor": 4647,
      "mediately": 4648,
      "Where": 4649,
      "áĪ¤": 4650,
      "áĪĿáĪ©": 4651,
      "áīłáĬ¢áĭ¨áĪ©áĪ³áĪĮáĪĿáĪĿ": 4652,
      "áĪŃáĭĿ": 4653,
      "áĬ¥áĬ©áĪĮ": 4654,
      "áĪĪáī°": 4655,
      "áĪĪáįĪ": 4656,
      "Ġwant": 4657,
      "Ġobe": 4658,
      "Ġsn": 4659,
      "áī£áī¸áĭįáĬķ": 4660,
      "áĬ¹áĬ½": 4661,
      "áįįáĪĭ": 4662,
      "Ġgre": 4663,
      "ĠáĬłáĪµáī°": 4664,
      "áĮ¥áĪį": 4665,
      "áĭĲáĪĿáĪµ": 4666,
      "ention": 4667,
      "ĠáĪ½": 4668,
      "ceed": 4669,
      "áĭ¨áĪļáĬĸáĪ©": 4670,
      "áĪªáĬŃ": 4671,
      "Ġdeep": 4672,
      "ĠEven": 4673,
      "áĪķáĭĿáīħáĭ«áĪµ": 4674,
      "áĬłáī£áī´": 4675,
      "áĭµáĪ¨áĮį": 4676,
      "Ġworth": 4677,
      "áĭ³áĬķáĬ¤áĪį": 4678,
      "áĭĪáĮĪáĬĸáī½": 4679,
      "Ġappro": 4680,
      "áĮ®áĬ¸": 4681,
      "Ġfamine": 4682,
      "áī°áĬĵáĮį": 4683,
      "áĭ¨áĬ¾áĬĲáĭįáĬķ": 4684,
      "áĮķáĭµáĮĵáĭµ": 4685,
      "Ġpieces": 4686,
      "Ġcommitted": 4687,
      "Ġcompassion": 4688,
      "At": 4689,
      "ĠáĮ£": 4690,
      "ĠáĭĵáĪĪáĪĿ": 4691,
      "áĪįáī³": 4692,
      "áĪµáĭ°": 4693,
      "áĭ°áĪĺáĬĵ": 4694,
      "áī¥áĪµ": 4695,
      "áĪĭáĭį": 4696,
      "ertain": 4697,
      "áĪĽáĭĬ": 4698,
      "Ġlin": 4699,
      "Ġlion": 4700,
      "áĬŃáĪĻ": 4701,
      "áĪ³áĭį": 4702,
      "Ġget": 4703,
      "Ġep": 4704,
      "alth": 4705,
      "áīĨáĪµ": 4706,
      "áĪ½áĬķáĪĿ": 4707,
      "áī½áĬķáĬĵ": 4708,
      "áĬ¥áĬĲáĭļáĪħáĪĿ": 4709,
      "áĪľáĪĮ": 4710,
      "áĪĿáĭµáĪŃáĬķ": 4711,
      "Ġburied": 4712,
      "áī³áĭįáīģ": 4713,
      "áīłáĭ¨áĭĪáĮĪ": 4714,
      "Ġpassed": 4715,
      "Ġplease": 4716,
      "Ġbeasts": 4717,
      "Ġflee": 4718,
      "OM": 4719,
      "ban": 4720,
      "fully": 4721,
      "rance": 4722,
      "ĠáįĬáīµ": 4723,
      "Ġáĭ°áĮįáĪŀ": 4724,
      "áĬķáĮ«": 4725,
      "áīłáī¥áĭĻ": 4726,
      "áī°áī¥áĪİ": 4727,
      "Ġbore": 4728,
      "áĪ°áįĪáĪ©": 4729,
      "Ġled": 4730,
      "áĮłáĬĲ": 4731,
      "owing": 4732,
      "ĠáĪĴ": 4733,
      "áįĭáĪ²": 4734,
      "áĪ¸áĪ½": 4735,
      "áĪĺáĪĪáĬ¨áīµ": 4736,
      "Ġeverything": 4737,
      "Ġwatch": 4738,
      "Ġeye": 4739,
      "Ġenemy": 4740,
      "áĭŃáĬĸáĪ«áĪį": 4741,
      "Ġrelatives": 4742,
      "May": 4743,
      "gs": 4744,
      "ibe": 4745,
      "wise": 4746,
      "áĬłáĪĺáĮ¡": 4747,
      "áĭ¨áĪĮ": 4748,
      "áĭ°áī¡": 4749,
      "áī³áĪĪáĬ¹": 4750,
      "áīĢáīłáĪį": 4751,
      "áįįáī³": 4752,
      "owed": 4753,
      "odu": 4754,
      "áĪŀáĪ«": 4755,
      "áĬ¥áĬķáĭ°áĭļáĪħ": 4756,
      "áĪłáĪ¨": 4757,
      "Ġate": 4758,
      "áĪĿáĭµáĪŃáĪĿ": 4759,
      "áĬªáĪ©": 4760,
      "áĬłáī£áī¶áī½": 4761,
      "áįĪáĪŃáĭµ": 4762,
      "Ġglor": 4763,
      "oboam": 4764,
      "Ġdelight": 4765,
      "áīłáĪĿáĭµáĪŃáĪĿ": 4766,
      "áĬłáĬķáĭ±áĪĿ": 4767,
      "áī°áĪĺáĪĪáĪ°": 4768,
      "Ġprayer": 4769,
      "ĠáįĬ": 4770,
      "ĠáĬĲáįį": 4771,
      "áĪįáĬ®": 4772,
      "áī¥áĪ¨áīµ": 4773,
      "Ġpure": 4774,
      "áįįáĬĵ": 4775,
      "ĠIN": 4776,
      "áįĪáīµ": 4777,
      "ĠAn": 4778,
      "áĭĭáĪĿ": 4779,
      "amar": 4780,
      "áĬĸáĪµáĪĿ": 4781,
      "Ġspr": 4782,
      "áĬłáĪįáĬ¹": 4783,
      "Ġbran": 4784,
      "áĬ¢áĭ®áĪŃ": 4785,
      "Ġrain": 4786,
      "áĬºáĭ±": 4787,
      "ected": 4788,
      "áĬŀáī½": 4789,
      "Ġcurse": 4790,
      "Ġslave": 4791,
      "ĠáĪ¥áīĥ": 4792,
      "áĬłáĬķáĭ³áī½": 4793,
      "Ġportion": 4794,
      "Ġfinished": 4795,
      "God": 4796,
      "Ġir": 4797,
      "áĭŃáĭĺáĭį": 4798,
      "áĬĲáĪ¡": 4799,
      "Ġbound": 4800,
      "áĪ°áĪ«áĭĬáīµ": 4801,
      "áĪĽáī¸áĭį": 4802,
      "áĪĽáĪĪáĬ¹": 4803,
      "Ġáĭ¨áĬŃáī¥áĪŃ": 4804,
      "áĬĸáĪ¨áĭį": 4805,
      "áĭŃáĪħáī½": 4806,
      "áĬłáĬķáĭ³áĬķ": 4807,
      "ulf": 4808,
      "áĭŃáĪģáĭ³áĪĿ": 4809,
      "ĠáĮĪáĭ³": 4810,
      "ĠAbsalom": 4811,
      "oint": 4812,
      "azar": 4813,
      "Ġcamped": 4814,
      "Ġasked": 4815,
      "Ġsatis": 4816,
      "Ġfifty": 4817,
      "Also": 4818,
      "ĠáĬĲáīłáĪ¨": 4819,
      "áīłáĬ¤": 4820,
      "áĭįáĪŃ": 4821,
      "áĭ«áĭ©": 4822,
      "Ġmaid": 4823,
      "Ġhair": 4824,
      "áī¥áĪı": 4825,
      "áĭĲáĮ¥áĬķ": 4826,
      "ĠBal": 4827,
      "áīĨáĪŀ": 4828,
      "áīĨáĪĺáĭį": 4829,
      "Ġconsecr": 4830,
      "áīłáĪĺáĭłáĪĺáĪªáĭ«": 4831,
      "pped": 4832,
      "áĭ«áĭįáīħ": 4833,
      "Ġgreatly": 4834,
      "Ġcove": 4835,
      "áĬ¹áĪĪáī°áĬĽáĭį": 4836,
      "Ġdestruction": 4837,
      "Ġfeast": 4838,
      "áįĪáĮ¸áĪĿ": 4839,
      "áĭĲáĪĺáįĢ": 4840,
      "Ġutter": 4841,
      "ĠáĪĶáĭ°": 4842,
      "Ġobserve": 4843,
      "Ġobey": 4844,
      "Ġlinen": 4845,
      "áĬ¢áĭ®áĪŃáī¥áĭĵ": 4846,
      "aam": 4847,
      "ael": 4848,
      "áīłáĮ¥": 4849,
      "áĪŃáĬµáĪ°": 4850,
      "áĬ¥áĭ¨áī°": 4851,
      "áĭŃáĪ»": 4852,
      "áĮĪáĭ³": 4853,
      "áĪ¨áįĪ": 4854,
      "Ġcertain": 4855,
      "áĪĽáĭ¶": 4856,
      "áīĢáĮ¥": 4857,
      "áīħáĮ¥áĪŃ": 4858,
      "ari": 4859,
      "ĠHer": 4860,
      "áĭĿáĬķ": 4861,
      "áīłáĪĺáĪłáĭĬáĭ«áĭį": 4862,
      "áī°áīĢáĪĿáĮ¦": 4863,
      "áĪ¦áĪµáī°áĬĽ": 4864,
      "áīĥáĮłáĪį": 4865,
      "Ġhard": 4866,
      "áī³áĭ°áĪŃáĮĭ": 4867,
      "Ġguilt": 4868,
      "Ġcompan": 4869,
      "Ġincre": 4870,
      "áĬ¥áĮģáĬķ": 4871,
      "Ġredeem": 4872,
      "Ġshekels": 4873,
      "ere": 4874,
      "eared": 4875,
      "ize": 4876,
      "áīłáĬĽ": 4877,
      "áīłáĪĺáĮ£": 4878,
      "áīłáĮĪáī£": 4879,
      "áĭŃáĪłáĪ«": 4880,
      "áĪĭáī½áĬķ": 4881,
      "áī³áĮł": 4882,
      "áĬŃáĬ½": 4883,
      "ider": 4884,
      "ĠAh": 4885,
      "áīĥáĪĮ": 4886,
      "used": 4887,
      "áĪĻáĪĿ": 4888,
      "áĬĸáĪ©áīµ": 4889,
      "áī¡áīµ": 4890,
      "áĪ®áĭµ": 4891,
      "áīłáĬ¥áĮĥ": 4892,
      "Ġprison": 4893,
      "Ġprodu": 4894,
      "ĠáĬ¥áĬķáĭ°áĪļ": 4895,
      "áī³áī¸áĭįáĬķáĪĿ": 4896,
      "áī¸áĭĭáĪĪáĬ½": 4897,
      "áĮłáĪĭáī¶áī½": 4898,
      "Ġtremb": 4899,
      "ĠPharise": 4900,
      "Ġsacrifices": 4901,
      "Ġafflicted": 4902,
      "ĠáĪĥáĭŃáĪĽáĬĸáīµ": 4903,
      "áĬłáĮĪáĪįáĮįáĪİ": 4904,
      "Ġdeparted": 4905,
      "ek": 4906,
      "hind": 4907,
      "zer": 4908,
      "áĪįáī¤": 4909,
      "áĪįáĭ©": 4910,
      "oura": 4911,
      "áī°áĪĺ": 4912,
      "Ġcher": 4913,
      "áĮłáĪį": 4914,
      "áįĪáīĢáīħ": 4915,
      "áĮĭáĭ°": 4916,
      "áĭİáī¿": 4917,
      "Ġgosp": 4918,
      "iful": 4919,
      "áĮİáĪŃ": 4920,
      "áĮĪáĭµáĪį": 4921,
      "ĠJeroboam": 4922,
      "othing": 4923,
      "áĪĿáĪµáĬŃ": 4924,
      "Ġadvers": 4925,
      "áĮ¾áĪŃ": 4926,
      "áĬ«áĪħáĬĵáī±": 4927,
      "haphat": 4928,
      "áĭ®áĪ´áįįáĪĿ": 4929,
      "Ġnames": 4930,
      "ĠThus": 4931,
      "Ġprepared": 4932,
      "ĠNebu": 4933,
      "Ġrefuge": 4934,
      "Ġgospel": 4935,
      "Bless": 4936,
      "hon": 4937,
      "nant": 4938,
      "áĬĶáĪŃ": 4939,
      "Ġtear": 4940,
      "áĪĺáī¼": 4941,
      "áĬĲáīµáĬķ": 4942,
      "áĭĺáĭŃáīµ": 4943,
      "áĭ³áĬĵ": 4944,
      "áįįáĪ©": 4945,
      "áĮĭáĪ»": 4946,
      "áī¥áĪŃáī±": 4947,
      "áĪ¸áĬķ": 4948,
      "Ġvill": 4949,
      "Ġshepher": 4950,
      "Ġaccept": 4951,
      "áĪĺáĪµáĪį": 4952,
      "áĭ°áĪ¨áĮĪáĭį": 4953,
      "áĮįáĪ¥áīµ": 4954,
      "ĠEgyptians": 4955,
      "áĬ¢áĭ«áĪ±áĪĿ": 4956,
      "áĭ«áĪīáīµáĬķ": 4957,
      "ĠáĪĥáĭ«": 4958,
      "Ġsmall": 4959,
      "ĠáīłáĪļáĪĨáĬķ": 4960,
      "Ġcontinually": 4961,
      "áĭĲáĪ³áī¥": 4962,
      "Ġmercy": 4963,
      "Ġcrowd": 4964,
      "Ġhorse": 4965,
      "ĠEsau": 4966,
      "Please": 4967,
      "ĠáĬĵáī¸áĭį": 4968,
      "áĭ«áĭĬ": 4969,
      "áĭ«áĪīáīµ": 4970,
      "áĮįáĪŃ": 4971,
      "áīħáĬĵ": 4972,
      "áĪ³áīµáĪĿ": 4973,
      "áĮłáī¦": 4974,
      "ĠIS": 4975,
      "ĠAz": 4976,
      "áĭ¨áĪļáĪį": 4977,
      "áĪĲáĪ´": 4978,
      "ĠBar": 4979,
      "ĠáĭĺáĪĺáĬķ": 4980,
      "Ġaccount": 4981,
      "Ġneither": 4982,
      "áĮĪáĭ°áĪĪ": 4983,
      "Ġacts": 4984,
      "áĪĿáĪķáĪ¨áīµ": 4985,
      "áĮ©áĬ¸": 4986,
      "áĮ¨áĪ¨áĪ»": 4987,
      "Ġiron": 4988,
      "EN": 4989,
      "áīłáĭĲáĪ¥áĪ«": 4990,
      "áĬ¥áĭ«áĪī": 4991,
      "áĪµáĪį": 4992,
      "Ġsum": 4993,
      "áĭ¨áĬ¾áĬĳ": 4994,
      "áĭ«áĪĭ": 4995,
      "Ġfulf": 4996,
      "áĪ°áĮ¡": 4997,
      "áī£áīµáĪĿ": 4998,
      "áīĢáĬķáĪĿ": 4999,
      "ĠáīłáĮĮáī³áī½áĬķ": 5000,
      "áįĪáī³": 5001,
      "Ġthought": 5002,
      "Ġrequ": 5003,
      "áĪµáĪĿáĬķáīµ": 5004,
      "áīłáīµáĪŃ": 5005,
      "áīģáĬķ": 5006,
      "Ġhour": 5007,
      "Ġconce": 5008,
      "Ġplant": 5009,
      "Ġgiving": 5010,
      "Ġothers": 5011,
      "Ġbeloved": 5012,
      "áĪĺáĭĽáĪĻáĪŃáī±": 5013,
      "ĠJehoi": 5014,
      "ircumcised": 5015,
      "gain": 5016,
      "ray": 5017,
      "áĪĿáĪ¨": 5018,
      "áīłáĪ¥áĮĭ": 5019,
      "áīłáĬ¥áĬĲáĪŃáĪ±": 5020,
      "áĬ¥áĭĺ": 5021,
      "ndeed": 5022,
      "áĭ¨áĪ«": 5023,
      "áī°áĬ£": 5024,
      "áĪĽáĭµ": 5025,
      "Ġpoured": 5026,
      "Ġhate": 5027,
      "áī¥áĪĶ": 5028,
      "ĠIf": 5029,
      "áĪļáĭĽ": 5030,
      "áĪķáĪį": 5031,
      "ĠSHA": 5032,
      "Ġanointed": 5033,
      "áįĬáĭ«": 5034,
      "áĬłáĭŃáĮĪ": 5035,
      "áĬłáĬķáī°áĬķ": 5036,
      "Ġloved": 5037,
      "Ġears": 5038,
      "áĭ«áĭįáīģ": 5039,
      "áĬłáĭµáĪŃáĮĪáĭį": 5040,
      "ĠZeb": 5041,
      "áįįáĪŃáĪĢ": 5042,
      "áĭĲáĭŃáĬĸáī½": 5043,
      "áīłáĪĿáīµ": 5044,
      "áĪ¾áĪĺ": 5045,
      "áĪĺáīħáĭ°áĪ±": 5046,
      "ĠáĪĺáĪįáĬłáĬŃ": 5047,
      "áĬłáĪįáĬĲáīłáĪ¨áĪĿ": 5048,
      "áĪ¥áĪįáĮ£áĬķ": 5049,
      "Ġbeginning": 5050,
      "ĠáĬ¢": 5051,
      "áį°": 5052,
      "áīĬ": 5053,
      "áĭŃáī£": 5054,
      "áĭŃáĬ¼áĭ³": 5055,
      "áĭĪáĪ¬": 5056,
      "Ġbar": 5057,
      "áī³áĭ°": 5058,
      "áĭĺáĪĪáĭĵáĪĪáĪĿ": 5059,
      "Ġpar": 5060,
      "áĬ¹áīµáĬķ": 5061,
      "Ġins": 5062,
      "áĪīáĬĵ": 5063,
      "Ġgri": 5064,
      "ĠLike": 5065,
      "áĪŀáĭĲ": 5066,
      "ĠGad": 5067,
      "ĠGibe": 5068,
      "áĭµáĪŃáĮį": 5069,
      "Ġseed": 5070,
      "ĠBet": 5071,
      "Ġdemon": 5072,
      "Ġalive": 5073,
      "osed": 5074,
      "áĪĭáī½áĬ¹áĬķ": 5075,
      "Ġexcept": 5076,
      "áĬłáī¥áĭ«": 5077,
      "Ġdisp": 5078,
      "ĠáĬ¥áĬķáĭ°áĪĨáĬĲ": 5079,
      "áĬ¨áĬĲáĭĵ": 5080,
      "Ġappeared": 5081,
      "Ġwalked": 5082,
      "ĠYet": 5083,
      "Ġfollowed": 5084,
      "ĠáĭµáĬķáĮįáĪį": 5085,
      "áĪľáĪĮáĬŃ": 5086,
      "Ġcherub": 5087,
      "dne": 5088,
      "ĠáĬķáĭµ": 5089,
      "ĠáĬ¥áĬķáĮĤ": 5090,
      "ĠáīħáĭµáĪµáīµ": 5091,
      "áīłáĭ«": 5092,
      "áĬłáĭĺáĭĺ": 5093,
      "Ġsitting": 5094,
      "áĭ¨áĮįáī¥áĮ½": 5095,
      "áĭ¨áīĢáĪ¨": 5096,
      "áĭŃáīłáĪĭ": 5097,
      "áĭ°áĭµ": 5098,
      "hald": 5099,
      "áĭĪáīģ": 5100,
      "áĮįáĪ«": 5101,
      "Ġnaked": 5102,
      "áĮłáĭŃ": 5103,
      "áĬ«áĪŃáĭ«": 5104,
      "Ġcomfor": 5105,
      "Ġmyself": 5106,
      "áĬĲáĮĪáĪŃáĬķ": 5107,
      "áĪĺáĪįáĬ©": 5108,
      "Ġatone": 5109,
      "áī´áĬķáĪĿ": 5110,
      "Ġblind": 5111,
      "áĬłáĮĪáĪ©": 5112,
      "áĬłáĮĪáĬĺ": 5113,
      "áĪĿáĬĵáĪ´": 5114,
      "uben": 5115,
      "áįįáĪŃáĭµáĬķ": 5116,
      "áĪĮáĪĭáĭİáī½": 5117,
      "áīħáĪŃáī¥": 5118,
      "Ġsuff": 5119,
      "áĬłáĭ°áĪ¨áĮį": 5120,
      "áī³áĭ°áĪŃáĮī": 5121,
      "chadne": 5122,
      "Ġestablished": 5123,
      "Ġperform": 5124,
      "Ġbapt": 5125,
      "halde": 5126,
      "chadnezzar": 5127,
      "ls": 5128,
      "áīłáĭļáĪħáĪĿ": 5129,
      "áĬłáĪħáĭ«": 5130,
      "áĭįáĪ°áĭµ": 5131,
      "áĪĪáĪ½": 5132,
      "áĭ¨áĪĮáĪĪ": 5133,
      "áĭŃáĭĿ": 5134,
      "áĮįáĪ£": 5135,
      "Ġbones": 5136,
      "ited": 5137,
      "áīĢáĪĿ": 5138,
      "ĠHan": 5139,
      "áĭĪáĭ°áĬ¥áĮįáĭļáĬłáī¥áĪĶáĪŃ": 5140,
      "áĮ£áī¸áĭį": 5141,
      "áĭĭáĪ»": 5142,
      "áĬ¤áĪįáĪ³": 5143,
      "ĠáĭĪáĬķáĭµ": 5144,
      "Ġlies": 5145,
      "ĠOn": 5146,
      "áī¦áī½": 5147,
      "áĮ¢áĪŀ": 5148,
      "Ġrod": 5149,
      "Ġrich": 5150,
      "ĠChalde": 5151,
      "áĬłáĪµáī°": 5152,
      "áīłáĪ°áĬķ": 5153,
      "áĪ°áĭŃáĮ£áĬķ": 5154,
      "áĭ¨áĬĲáīłáĪ©áīµáĬķ": 5155,
      "áĬ¨áī°áĪĽáĭªáī±áĪĿ": 5156,
      "ĠThis": 5157,
      "Ġgeneration": 5158,
      "áĬ¥áĭ«áĬķáĭ³áĬķáĭ±": 5159,
      "áĮķáĪįáĪĽáĪ³": 5160,
      "Ġteaching": 5161,
      "Ġoxen": 5162,
      "áĬ¤áĪŃáĪĿáĭ«áĪµ": 5163,
      "By": 5164,
      "ijah": 5165,
      "ues": 5166,
      "ual": 5167,
      "ĠáĪ±": 5168,
      "áīµáĪĭ": 5169,
      "áĭįáĭ«": 5170,
      "áĭ¨áĬ¢áĭ¨áĪ±áĪµ": 5171,
      "áĬĲáĬ«": 5172,
      "áĬĵáĭįáĭ«áĬķ": 5173,
      "Ġbed": 5174,
      "áĪ°áī½": 5175,
      "Ġyouth": 5176,
      "Ġbehind": 5177,
      "áĮłáĪĿ": 5178,
      "ĠáīłáĪĭ": 5179,
      "áĮĭáī¸áĭį": 5180,
      "let": 5181,
      "Ġthres": 5182,
      "áĬ¾áĬķáĪĿ": 5183,
      "cted": 5184,
      "áĭĪáĪŃáĭµ": 5185,
      "áĮ¦áĪµ": 5186,
      "Ġknows": 5187,
      "ilee": 5188,
      "ĠáĮĪáĬķ": 5189,
      "ruly": 5190,
      "áĬĢáĮ¢áĬłáīµáĬķ": 5191,
      "áĪ°áĪİáĪŀáĬķáĪĿ": 5192,
      "ĠáĬ¥áĬĲáĪŃáĪ±áĪĿ": 5193,
      "Ġafflict": 5194,
      "áĮĪáĬķáĭĺáī¥": 5195,
      "áĬĢáĭ«áĪĭáĬķ": 5196,
      "Surely": 5197,
      "under": 5198,
      "áīłáĪĭáī¸áĭį": 5199,
      "áīłáĬ¾áĬĲ": 5200,
      "áīłáĪīáīµ": 5201,
      "áīłáī£áĪķáĪŃ": 5202,
      "áĬ¥áĪ°": 5203,
      "áĭŃáĪ°áĪĽ": 5204,
      "áĪĺáĬ«": 5205,
      "áĭ°áĮĥ": 5206,
      "áī°áī£": 5207,
      "áĬ¨áĭį": 5208,
      "áĮįáĬĳ": 5209,
      "Ġchan": 5210,
      "áįįáĮ»áĪľ": 5211,
      "ĠáīłáĪŃ": 5212,
      "ĠáĬłáĬķáī°": 5213,
      "áĮ£áįĭ": 5214,
      "áĬĽáĭįáĪĿ": 5215,
      "áĭķáĪ«": 5216,
      "elah": 5217,
      "ĠGent": 5218,
      "ĠáĪĺáĪŃ": 5219,
      "áĪµáĪĪáĪļ": 5220,
      "Ġlift": 5221,
      "tern": 5222,
      "áĪĺáĮ£áĭį": 5223,
      "Ġnext": 5224,
      "imelech": 5225,
      "Ġangry": 5226,
      "áīłáįĬáī´": 5227,
      "áīłáĭįáĪµ": 5228,
      "ĠáĬŃáĪŃáĪµáī²áĭ«": 5229,
      "Ġsurround": 5230,
      "ĠElijah": 5231,
      "Ġlambs": 5232,
      "áĮĪáĪĪáĭĵáĭµ": 5233,
      "áĬĵáī¡áĬ¨áĭ°áĬĲ": 5234,
      "ĠSHALL": 5235,
      "Ġatonement": 5236,
      "áīłáĪĿáĬķ": 5237,
      "áĬłáī¸áĭį": 5238,
      "áĭ¨áī£": 5239,
      "áĭ¨áī¥áĪŃ": 5240,
      "áī¥áĭ³áī¤": 5241,
      "essel": 5242,
      "Ġpay": 5243,
      "áĪīáīµáĬķ": 5244,
      "ater": 5245,
      "Ġgrow": 5246,
      "ĠHow": 5247,
      "áīĥáī¸áĭį": 5248,
      "ict": 5249,
      "ĠGal": 5250,
      "ĠáĪĺáĬ¨áĪ«": 5251,
      "áīĨáī½": 5252,
      "áĪĬáī£": 5253,
      "Ġvessel": 5254,
      "ĠWHO": 5255,
      "Ġrun": 5256,
      "áĭ¨áĬ¥áĮįáĭļáĬłáī¥áĪĶáĪŃáĬķáĪĿ": 5257,
      "áīĢáĪŃáī£": 5258,
      "áīłáĬ¥áĬĽ": 5259,
      "ways": 5260,
      "ĠZer": 5261,
      "Ġprev": 5262,
      "ĠAmor": 5263,
      "ĠáīłáĪ¨áĬ¨áī³áī¸áĭįáĪĿ": 5264,
      "ixed": 5265,
      "áĪĺáĭµáĬĢáĬĴ": 5266,
      "áĬĲáī¢áĭŃ": 5267,
      "Ġfoolish": 5268,
      "Ġapost": 5269,
      "lied": 5270,
      "rs": 5271,
      "ram": 5272,
      "shaphat": 5273,
      "head": 5274,
      "áĪĿáĬŃáĪŃ": 5275,
      "áīłáĬĵ": 5276,
      "áīłáĪ«áĪ±": 5277,
      "ince": 5278,
      "áī°áĭ°": 5279,
      "áī°áĪĭáĪĪ": 5280,
      "áĪĽáĪĽ": 5281,
      "Ġinter": 5282,
      "áįįáĪĿ": 5283,
      "ĠáĬłáīµ": 5284,
      "ĠáĬłáĪ³": 5285,
      "ĠáĬłáĪĭáī¸áĭį": 5286,
      "hob": 5287,
      "áĮĭáĭŃ": 5288,
      "áĮ¥áįĭ": 5289,
      "ĠAhab": 5290,
      "Ġformer": 5291,
      "ĠáĪ£": 5292,
      "ĠJes": 5293,
      "uring": 5294,
      "ĠáĬ¨áĪļ": 5295,
      "áĮįáĬķáī¥": 5296,
      "áĪĲáĭĭáĪŃáĭ«": 5297,
      "Ġáī°áĬł": 5298,
      "ĠNo": 5299,
      "Ġcommandment": 5300,
      "áĬ¢áĭ®áĪ³áįį": 5301,
      "áĭ¨áĬłáĪķáĭĽáī¥": 5302,
      "Ġangels": 5303,
      "áĬłáĪķáĭĽáī¥áĪĿ": 5304,
      "áĬĲáĬĿáĬĵ": 5305,
      "áĪįáĮģáĬķ": 5306,
      "Ġpursu": 5307,
      "áĭ¨áĭĺáĪĪáĭĵáĪĪáĪĿ": 5308,
      "ĠReuben": 5309,
      "Ġdesolate": 5310,
      "Ġmultip": 5311,
      "ĠPharisees": 5312,
      "ĠGentiles": 5313,
      "ug": 5314,
      "áīłáĮĪ": 5315,
      "áĭŃáĪĭáĪī": 5316,
      "áĪĺáī£": 5317,
      "áī°áĪ«": 5318,
      "áĮįáĭ°": 5319,
      "Ġtop": 5320,
      "Ġcattle": 5321,
      "Ġden": 5322,
      "áĪ±áīµ": 5323,
      "áĮ¥áī°áĭį": 5324,
      "Ġáĭ¨áīħáĭ±áĪµ": 5325,
      "áĭĲáĭĽ": 5326,
      "áĭķáĪĪáīµ": 5327,
      "áĬ«áĪĪáĭį": 5328,
      "ĠMa": 5329,
      "Ġsaved": 5330,
      "ĠáĬ¥áĪĪ": 5331,
      "Ġstre": 5332,
      "Ġupright": 5333,
      "áĬ»áī¸áĭį": 5334,
      "Ġprosp": 5335,
      "áĬĵáī¸áĭįáĬķ": 5336,
      "áĮłáĪ«áĭį": 5337,
      "áĪµáī°áĭĭáĪį": 5338,
      "áĪĺáĬķáĮįáĪ¥áī°": 5339,
      "Ġgrant": 5340,
      "áĪ³áĪĻáĬ¤áĪįáĪĿ": 5341,
      "áī³áĭįáīĥáĪĭáī½áĬ¹": 5342,
      "Ġsleep": 5343,
      "áī£áĪĪáĮłáĮĭ": 5344,
      "Ġhidden": 5345,
      "ĠáĬ¤áĮ²áĪµáīĨáĮ¶áĪµ": 5346,
      "áĬ¢áīµáĭ®áĮµ": 5347,
      "Ġbirds": 5348,
      "Blessed": 5349,
      "AY": 5350,
      "oil": 5351,
      "Ġve": 5352,
      "áĪĿáĬĲáīµ": 5353,
      "áīłáĪĪáĭį": 5354,
      "áīłáĪķáĭĿáī¡": 5355,
      "áĬ¥áĮĥ": 5356,
      "Ġsy": 5357,
      "áī°áĭįáĪĿ": 5358,
      "isions": 5359,
      "áĮĪáĪ¥": 5360,
      "Ġhum": 5361,
      "Ġhome": 5362,
      "Ġinqu": 5363,
      "áīĢáĪ³": 5364,
      "Ġloud": 5365,
      "ĠáĪ¾": 5366,
      "ries": 5367,
      "ĠáĭĪáĮĪ": 5368,
      "áįīáĬķ": 5369,
      "Ġserved": 5370,
      "Ġtrue": 5371,
      "Ġremoved": 5372,
      "áĪĢáĭ²": 5373,
      "ĠáĬłáĪĪáīĥ": 5374,
      "áĭ¨áĬĲáīłáĪ©áīµ": 5375,
      "Ġleaders": 5376,
      "áįįáĪįáĪµáĮ¥áĬ¤áĪĽáĭįáĭ«áĬķ": 5377,
      "âĢ¬": 5378,
      "ĠNebuchadnezzar": 5379,
      "David": 5380,
      "ters": 5381,
      "ĠáĪįáĮĨáī½": 5382,
      "áīłáĮł": 5383,
      "áīłáĪ®": 5384,
      "áīłáī°áīĢ": 5385,
      "áīłáĬłáĬķáĭµáĬĲáīµ": 5386,
      "áĬłáī¥áĪŃáĪĥ": 5387,
      "áīµáīłáĪĭ": 5388,
      "áĭ¨áĬ¢": 5389,
      "áĭ°áĮħ": 5390,
      "áĭ«áĭŃ": 5391,
      "áĭµáĪį": 5392,
      "áĪ°áĭĵáīµ": 5393,
      "áī£áī¸áĭįáĪĿ": 5394,
      "áĭĺáĭĻ": 5395,
      "áĪ³áī¸áĭįáĪĿ": 5396,
      "áĭ³áīµ": 5397,
      "Ġonce": 5398,
      "áĬ«áĬ¤áĪį": 5399,
      "Ġwealth": 5400,
      "áĬłáĪĪáī½áĭį": 5401,
      "Ġasham": 5402,
      "áĪĪáĬ¹áĬĵ": 5403,
      "áĪİáĪĮ": 5404,
      "áĪµáĪĿáĭĸáĬķ": 5405,
      "áīħáĭ±áĪ³": 5406,
      "ĠEle": 5407,
      "ĠWhy": 5408,
      "ĠáĭĪáĭ°áĪŃáĪ±": 5409,
      "áīĤáĭ«": 5410,
      "Ġgreater": 5411,
      "Ġremnant": 5412,
      "áĬłáĬķáĭ±áĬķ": 5413,
      "Ġstrang": 5414,
      "Ġquick": 5415,
      "áī³áĬĵáĪ½": 5416,
      "áīłáĬµáĪŃ": 5417,
      "áī¸áĪŃáĬĲáīµ": 5418,
      "Ġreproach": 5419,
      "áĪĺáĬķáĭ°áĪ®": 5420,
      "Ġcovered": 5421,
      "Ġashamed": 5422,
      "end": 5423,
      "gr": 5424,
      "áīłáĭĪ": 5425,
      "áīłáīģ": 5426,
      "áīłáĬ¨áī°áĪĽ": 5427,
      "áĪĪáĭįáĪĿ": 5428,
      "áĭŃáĬ¹áĬĳ": 5429,
      "áĪĺáĮ»": 5430,
      "áī°áĬĿ": 5431,
      "áī½áĪįáĪĿ": 5432,
      "áĮĪáĪĭ": 5433,
      "áĮĪáĭ±": 5434,
      "áĮĪáĮĥ": 5435,
      "Ġhung": 5436,
      "omes": 5437,
      "áī¥áĪ¶": 5438,
      "ĠáīłáĪ°áĭŃáįį": 5439,
      "áĪķáĭ«": 5440,
      "irg": 5441,
      "áĬ¤áĪĬ": 5442,
      "ĠáĬ¨áĭļáĪħ": 5443,
      "áĪłáĬĺ": 5444,
      "áĬ¥áĬĵáīµ": 5445,
      "áī°áĬĽáĪĿ": 5446,
      "aken": 5447,
      "áī¥áĭĻáĭİáī½": 5448,
      "ĠáĪĽáĪŃ": 5449,
      "mbers": 5450,
      "áīĭáĬķ": 5451,
      "áĪĺáīħáĪł": 5452,
      "Ġadd": 5453,
      "Ġfallen": 5454,
      "áĮ§áī¸áĭį": 5455,
      "Ġdwelling": 5456,
      "Ġsmoke": 5457,
      "áĬ¨áĪĪáĭ³": 5458,
      "Ġslaves": 5459,
      "Ġdoorway": 5460,
      "áĮ¸áĪįáĭŃ": 5461,
      "áįĪáĪŃáĭĸáĬķáĪĿ": 5462,
      "Ġmessengers": 5463,
      "THE": 5464,
      "cus": 5465,
      "ead": 5466,
      "ĠáĪ°áĪĭáĪĿ": 5467,
      "áĬľ": 5468,
      "áīłáī¤áīµ": 5469,
      "áĭ¨áĬķáĮīáĪ¡": 5470,
      "áĪĺáī¥": 5471,
      "áī°áĮ½": 5472,
      "áĬ¨áīĢ": 5473,
      "áĪĭáĭĬ": 5474,
      "áĪ°áĪĭ": 5475,
      "iss": 5476,
      "áĪ«áīħ": 5477,
      "Ġmatter": 5478,
      "áĬŃáĪį": 5479,
      "áī±áĬķáĬĵ": 5480,
      "Ġem": 5481,
      "Ġetern": 5482,
      "áĭĭáīµ": 5483,
      "áī¶áī¹áĪĿ": 5484,
      "Ġáĭ¨áĪĿáīµ": 5485,
      "irm": 5486,
      "áĭĲáĪĽ": 5487,
      "rah": 5488,
      "riah": 5489,
      "ĠáĪĺáīĥ": 5490,
      "áĪĻáĬķáĪĿ": 5491,
      "áī¢áĭŃ": 5492,
      "Ġanim": 5493,
      "ĠIsh": 5494,
      "áĭĻáįĭáĬķ": 5495,
      "law": 5496,
      "ĠPas": 5497,
      "áĬ¾áĬĲáī½": 5498,
      "áĭĪáĭŃáįĪ": 5499,
      "Ġáĭ«áĭķáīĨáī¥": 5500,
      "áĭ¬áĪĿ": 5501,
      "áīłáĪ¨áĬ¨": 5502,
      "Ġshield": 5503,
      "Ġrose": 5504,
      "Ġforeign": 5505,
      "Ġpract": 5506,
      "Ġfollowing": 5507,
      "áĭķáĭįáīĢ": 5508,
      "Ġordinances": 5509,
      "dle": 5510,
      "ĠáĮĢ": 5511,
      "Ġedge": 5512,
      "áīłáī¤áī±": 5513,
      "áĬłáī¤áĪ´áĪİ": 5514,
      "áĪŃáĮį": 5515,
      "áĪĪáĬķáĮīáĪ¡": 5516,
      "áĭŃáĭĪáĪŃ": 5517,
      "áī°áĭī": 5518,
      "Ġbit": 5519,
      "Ġfig": 5520,
      "áī³áĬķáĪĿ": 5521,
      "edi": 5522,
      "áĬ¥áĬķáī¢": 5523,
      "áĪ³áĪĿ": 5524,
      "ank": 5525,
      "ĠáĬłáĪłáīĥ": 5526,
      "áĭħáĪĭáī½áĬ¹": 5527,
      "áĬ«áī¸áĭį": 5528,
      "ĠMic": 5529,
      "áĬĲáĭįáĪŃ": 5530,
      "áĬĸáĪµáĬķ": 5531,
      "áįĭáĪŃáĪµ": 5532,
      "áĪĲáĬĵ": 5533,
      "áĪĬáĪĭ": 5534,
      "áĪĪáĪĿáĬĵ": 5535,
      "áĭłáĪĺáĪ¨": 5536,
      "Ġflour": 5537,
      "áĬ¹áĪĪáī±áĪĿ": 5538,
      "áīłáĭ°áī¡": 5539,
      "áīłáĪ©áĪĿ": 5540,
      "áīłáĪĿáĭµ": 5541,
      "áĮĨáī¹": 5542,
      "ĠáĪ°áī£áīµ": 5543,
      "ĠBehold": 5544,
      "ĠLevi": 5545,
      "Ġrejo": 5546,
      "Ġremained": 5547,
      "áĪĲáĪ°áīµ": 5548,
      "ĠChaldeans": 5549,
      "Ab": 5550,
      "ĠáĪĭáĬ¨": 5551,
      "Ġast": 5552,
      "áīłáĮįáĬķ": 5553,
      "áīłáĪĮáĪĬáīµ": 5554,
      "áĬłáĬª": 5555,
      "áĬ¥áĬ½áĪį": 5556,
      "áĪĪáĪ°áĭį": 5557,
      "áĭŃáĬĲáĮį": 5558,
      "áĭ«áīµ": 5559,
      "áĪ«áī¸áĭįáĪĿ": 5560,
      "áĮĪáĭĻ": 5561,
      "ede": 5562,
      "Ġinner": 5563,
      "Ġresp": 5564,
      "ĠáĬ¥áĭ«": 5565,
      "áĪįáĮĨáī¿": 5566,
      "áĭ¶áĪµ": 5567,
      "sover": 5568,
      "áĬĵáī¸áĭįáĬĵ": 5569,
      "áĬ¾áĬĵáī½áĬ¹": 5570,
      "áīłáĪŃáĪ³áī¸áĭį": 5571,
      "áī·áĬķ": 5572,
      "Ġneck": 5573,
      "ĠRam": 5574,
      "áĪįáīħáĪ¶": 5575,
      "Ġproper": 5576,
      "Ġeaten": 5577,
      "Ġrestore": 5578,
      "áī¶áī»áī¸áĭįáĪĿ": 5579,
      "Ġscatt": 5580,
      "áĭĲáĭįáīĥáĪĪáĬ¹": 5581,
      "Ġfourth": 5582,
      "ĠáĬłáĬķáĭ±": 5583,
      "Ġpurp": 5584,
      "ĠáĭĪáĬķáĮĮ": 5585,
      "áĪ°áĭ°áĭ°": 5586,
      "Ġrememb": 5587,
      "áĮĭáĭµáĪİ": 5588,
      "áĬĥáĮ¥áĬ£": 5589,
      "ĠPassover": 5590,
      "Give": 5591,
      "Of": 5592,
      "SE": 5593,
      "yre": 5594,
      "ĠáĬķáĪĿ": 5595,
      "Ġáĭľ": 5596,
      "áīłáĭĥ": 5597,
      "áĪĪáĭ³áĭĬáīµ": 5598,
      "áĪµáĪľ": 5599,
      "Ġwond": 5600,
      "áī¥áī³": 5601,
      "áī°áĮłáĬķ": 5602,
      "áĬ¨áĭŃáĪģáĭ³": 5603,
      "Ġbas": 5604,
      "áĪ¨áĭ±": 5605,
      "áĪĽáī½áĬ¹": 5606,
      "Ġinv": 5607,
      "Ġlack": 5608,
      "áĭ³áĪī": 5609,
      "áĮłáĪĺ": 5610,
      "áĮ¥áįį": 5611,
      "iches": 5612,
      "áĮīáĪĿ": 5613,
      "áĪĻáĪī": 5614,
      "áĬłáĪĪáīĢ": 5615,
      "áĪ´áĬ¬": 5616,
      "Ġgover": 5617,
      "ude": 5618,
      "Ġarise": 5619,
      "Ġswore": 5620,
      "Ġshut": 5621,
      "áī¸áĭĭáĪįáĬĵ": 5622,
      "áīłáĬ¥áĪµáĪ«áĬ¤áĪįáĪĿ": 5623,
      "Ġcaptured": 5624,
      "Ġsky": 5625,
      "ĠáĬ¥áĬĲáĪĨ": 5626,
      "ĠJehoshaphat": 5627,
      "Ġflocks": 5628,
      "áĬ¥áĪĿáĬĲáīµ": 5629,
      "Ġappearance": 5630,
      "ĠHebron": 5631,
      "Ġvillages": 5632,
      "Every": 5633,
      "IR": 5634,
      "vant": 5635,
      "ĠáĭµáĪŃ": 5636,
      "ĠáĪ«áĪ±áĬķ": 5637,
      "áīłáĪĺáĬķáįĪáĪµ": 5638,
      "áīµáīĢ": 5639,
      "áĭ¨áĪ°áĮł": 5640,
      "áĪĺáĬŃ": 5641,
      "áī°áĪ»": 5642,
      "áĬ¨áĪ°áĭį": 5643,
      "áĭĪáĪ«": 5644,
      "áĭĪáīµáĪŃ": 5645,
      "Ġfem": 5646,
      "Ġmost": 5647,
      "áī£áĭ©": 5648,
      "áī£áĪı": 5649,
      "Ġced": 5650,
      "áĪĽáĪµ": 5651,
      "áĪĽáĪī": 5652,
      "Ġpath": 5653,
      "Ġlow": 5654,
      "áĬŃáĪµ": 5655,
      "áĮłáĪĭáīµ": 5656,
      "áįįáĭ¨áĪį": 5657,
      "áĭĪáĭ°áĭļáĪħ": 5658,
      "Their": 5659,
      "áĭ²áĭ«áĭį": 5660,
      "áĭķáĪ«áī¥": 5661,
      "Ġwaste": 5662,
      "ĠáĭĪáĮ£": 5663,
      "áĪ´áĭ´": 5664,
      "áĪįáĮĨáī¹áĪĿ": 5665,
      "áįīáĪĿ": 5666,
      "Ġvision": 5667,
      "áĮĪáĪĪáĮ¥": 5668,
      "áĪłáĪ«áĭį": 5669,
      "áĭŃáĭĪáĪµ": 5670,
      "áĪķáĭĿáī¡áĬķáĪĿ": 5671,
      "áī¼áĬķ": 5672,
      "áĬ¬áī¥áĪ®": 5673,
      "avened": 5674,
      "Ġspeaks": 5675,
      "áĮĪáĭ°áĪī": 5676,
      "áī°áĬĲáĪ¡": 5677,
      "Ġharvest": 5678,
      "Ġsecret": 5679,
      "áĬ«áĪħáĬĵáī±áĪĿ": 5680,
      "ĠArame": 5681,
      "Ġbelieved": 5682,
      "Ġrams": 5683,
      "Ġgoats": 5684,
      "áĭĪáĬķáĭ¶áī½áĬĵ": 5685,
      "Ġexalted": 5686,
      "Ġchurch": 5687,
      "áĬ¥áĬ©áĪĮáī³": 5688,
      "Ġbitter": 5689,
      "Ġfemale": 5690,
      "GH": 5691,
      "TI": 5692,
      "aves": 5693,
      "ials": 5694,
      "to": 5695,
      "áĭĴ": 5696,
      "áīłáĬ¥áĮħáĬ½": 5697,
      "áĪĪáĪķáĭĿáī¡": 5698,
      "áĪµáĮłáĬķ": 5699,
      "Ġwo": 5700,
      "Ġoath": 5701,
      "áĭ¨áĪ°áĪĽáĭŃ": 5702,
      "áĭ¨áĬ¨áīłáĪ¨": 5703,
      "áĭ°áĬŃ": 5704,
      "áĭ«áĭ¨": 5705,
      "áĬ¨áĭĪ": 5706,
      "Ġcup": 5707,
      "ĠáīłáĪ°áĪĭáĪĿ": 5708,
      "ĠáīłáĭįáĪµ": 5709,
      "áįĪáī°": 5710,
      "áįĪáĪªáĪ³": 5711,
      "áĮ¥áĪµ": 5712,
      "ĠAt": 5713,
      "áīĥáĭĪ": 5714,
      "áĬ¾áĬĹ": 5715,
      "áī¤áī´": 5716,
      "Ġwash": 5717,
      "áī¢áĬĸáĪŃ": 5718,
      "áĮ½áĪķ": 5719,
      "áĪªáĪĿ": 5720,
      "áĭ¨áī°áĮ»áįĪ": 5721,
      "áīĨáĪŃ": 5722,
      "áĭ´áĬķ": 5723,
      "Ġenc": 5724,
      "áĬ¥áĮħáĮįáĪĿ": 5725,
      "ĠShec": 5726,
      "áĭ®áĪĲáĬķ": 5727,
      "Ġbowed": 5728,
      "Ġburning": 5729,
      "Ġmeasure": 5730,
      "ĠDaniel": 5731,
      "Ġtrouble": 5732,
      "Truly": 5733,
      "par": 5734,
      "Ġáĭ®": 5735,
      "ĠáĬĢ": 5736,
      "áīłáĭĲáĭŃ": 5737,
      "áīłáĬ¨áĬķáī±": 5738,
      "áĬ¥áĪĺáĪį": 5739,
      "áĭ¨áĪ°áĪĽ": 5740,
      "áĭ¨áĪĿáĬķ": 5741,
      "áĬĵáĪµ": 5742,
      "áĭ«áĭĻ": 5743,
      "áĭ«áĪĺáĮ£": 5744,
      "áĪ°áĪ«áĭĬ": 5745,
      "áĪ«áĬ¥áĭŃ": 5746,
      "áĮĪáīµ": 5747,
      "ength": 5748,
      "áĪĽáĭį": 5749,
      "Ġpour": 5750,
      "áīĢáĮłáīĢ": 5751,
      "áīħáĪ¬": 5752,
      "Ġlear": 5753,
      "aries": 5754,
      "ariah": 5755,
      "Ġheight": 5756,
      "ĠáĪĶáĪŃ": 5757,
      "ĠSelah": 5758,
      "áĪĲáĪĿ": 5759,
      "áĪĬáĪħ": 5760,
      "Ġsoon": 5761,
      "áĪ¸áĪ¹": 5762,
      "áĪ¥áĪ«áīµ": 5763,
      "Ġvirg": 5764,
      "ĠTheir": 5765,
      "áĬłáĪµáīĢáĭµ": 5766,
      "áīłáĪįáī¡": 5767,
      "fect": 5768,
      "áīĢáĪŃáī¥": 5769,
      "Ġexile": 5770,
      "áĬ¸áĭįáĪĿ": 5771,
      "áĭªáī±áĪĿ": 5772,
      "Ġdeser": 5773,
      "áīħáĪŃáĬķáĮ«": 5774,
      "áĭĪáĭ³áĪĪáĭį": 5775,
      "ĠShem": 5776,
      "Ġimmediately": 5777,
      "Ġoppos": 5778,
      "Ġbesides": 5779,
      "áĬĲáįįáĪ´áĬķ": 5780,
      "Ġstrike": 5781,
      "Ġofficials": 5782,
      "Ġminister": 5783,
      "Ġcalam": 5784,
      "áĪįáī¥áĪ±áĬķ": 5785,
      "Ġgovern": 5786,
      "CE": 5787,
      "Moses": 5788,
      "áĬ¥áĮĦ": 5789,
      "Ġwings": 5790,
      "áĭ¨áĭļáĭ«áĬķ": 5791,
      "áĭŃáĪŀ": 5792,
      "áĪĺáĪ«": 5793,
      "áĬ¨áĪį": 5794,
      "áĪ°áĪį": 5795,
      "ition": 5796,
      "Ġdire": 5797,
      "áĪĽáĭŃ": 5798,
      "Ġlength": 5799,
      "áĪ³áī±": 5800,
      "áĪħáĬĴ": 5801,
      "áĮłáĮ¡": 5802,
      "ĠAhaz": 5803,
      "áĬ¥áĮįáĭļáĬłáī¥": 5804,
      "áĭĪáĭ°áĭļáĭ«": 5805,
      "áĪķáįĢ": 5806,
      "áĪŃáĪ±áĬķáĪĿ": 5807,
      "race": 5808,
      "áĮīáĬķ": 5809,
      "áĭ¨áĪļáĬ¾áĬķ": 5810,
      "áĭ¨áĪļáĬ¾áĬĲáĭį": 5811,
      "ĠáĬ¥áĭ¨": 5812,
      "áĬ¤áĪįáĭ«": 5813,
      "ĠáĭĪáĪµ": 5814,
      "Ġsear": 5815,
      "ighty": 5816,
      "áīįáĮ¥": 5817,
      "áīłáĪ¨áī³": 5818,
      "áĪĺáĪµáĮĪáĮĥ": 5819,
      "Ġswe": 5820,
      "Ġbreast": 5821,
      "áĬ¹áĪĪáī±áĬķ": 5822,
      "Ġgracious": 5823,
      "áĪĺáīħáĭ°": 5824,
      "Ġhearing": 5825,
      "áĪĶáĪĿ": 5826,
      "Ġskin": 5827,
      "ĠáĪĺáī³áĪ°áī¢áĭ«áī¸áĭį": 5828,
      "Ġsigns": 5829,
      "áĭ¨áĪļáīĥáĮłáĪĪáĭįáĬķ": 5830,
      "ĠáĬłáĬŃáĪĬáĪį": 5831,
      "áĬłáĪįáĭĵáĭĽáĪŃ": 5832,
      "Ġsatisfied": 5833,
      "Ġquickly": 5834,
      "Ġeternal": 5835,
      "Have": 5836,
      "Those": 5837,
      "With": 5838,
      "ging": 5839,
      "Ġ4": 5840,
      "ĠáĬ½": 5841,
      "ĠáĪ©": 5842,
      "áĪĺáĭłáĪĺáĪªáĭ«": 5843,
      "áī¥áĬĵ": 5844,
      "áĬ¨áįĭ": 5845,
      "itude": 5846,
      "Ġmark": 5847,
      "áī£áĪĿ": 5848,
      "Ġbeha": 5849,
      "áĭ³áĪ©": 5850,
      "ĠáĬłáĮĪ": 5851,
      "icles": 5852,
      "ently": 5853,
      "ĠáĪ®": 5854,
      "Ġseat": 5855,
      "ĠáĪĪáĪĺ": 5856,
      "Ġspoil": 5857,
      "Ġali": 5858,
      "áĪįáĮĨáī½áĪĿ": 5859,
      "áĪ²áĬ¦": 5860,
      "Ġourselves": 5861,
      "áĬ¹áĪĪáī°áĬĽáĭįáĪĿ": 5862,
      "Ġsett": 5863,
      "áĮĪáĬĵáĬĺ": 5864,
      "Ġentrance": 5865,
      "agog": 5866,
      "Ġbond": 5867,
      "áĮĪáĭ°áĪį": 5868,
      "áī³áī½áĬ¹áĬķ": 5869,
      "áĮ®áĬ½": 5870,
      "ĠLeban": 5871,
      "áĭĳáĪį": 5872,
      "Ġblessing": 5873,
      "áī³áĭ°áĪŃáĮį": 5874,
      "ready": 5875,
      "áĬłáī£áīµáĬ½": 5876,
      "áĬ¨áĬ¥áĪµáĪ«áĬ¤áĪįáĪĿ": 5877,
      "Ġrule": 5878,
      "áĪ¦áĪµáī°áĬĽáĭį": 5879,
      "áĭ¨áī°áīĢáĭ°áĪ°": 5880,
      "áĬĵáī¡áĬ¨áĭ°áĬĲáĮ¾áĪŃ": 5881,
      "AR": 5882,
      "Even": 5883,
      "Woe": 5884,
      "land": 5885,
      "more": 5886,
      "tt": 5887,
      "ĠáĮī": 5888,
      "áĪ¢": 5889,
      "áĪĤ": 5890,
      "áĬ¥áīµ": 5891,
      "áĬ¥áĭ©": 5892,
      "áĪµáĭ«áĪµ": 5893,
      "Ġsom": 5894,
      "áĪĺáī¤": 5895,
      "áĭ«áīĥáĮ¥": 5896,
      "áĬ¨áĬ¾áĬĲ": 5897,
      "áĭĪáĭ±": 5898,
      "Ġfur": 5899,
      "áĪ°áĭ±": 5900,
      "áĪ°áĪ¶": 5901,
      "áĪ«áĪ³áī¸áĭį": 5902,
      "Ġmag": 5903,
      "áĮłáĭ¨": 5904,
      "ĠáĬłáĪĭ": 5905,
      "ĠáĬłáĭ³": 5906,
      "áĪŀáĪį": 5907,
      "áĭ±áīĦ": 5908,
      "ĠMer": 5909,
      "Ġsack": 5910,
      "ĠáĪĺáĮĭ": 5911,
      "ĠáĪĺáĮ£": 5912,
      "Ġwhite": 5913,
      "áĪ°áĭįáĬĲ": 5914,
      "ĠáĪĿáĬķáĪĿ": 5915,
      "ĠWe": 5916,
      "áĪ»áĪĪáĬ¹": 5917,
      "áĮĲáĬĵ": 5918,
      "áĬ¨áĬĲáĭĵáĬķ": 5919,
      "áĬĢáĮ¢áĬłáī°áĬĽáĭİáī½": 5920,
      "Ġwomb": 5921,
      "ĠAsa": 5922,
      "áĪıáīµ": 5923,
      "áĭĪáĬķáĭµáĪŀáī¹": 5924,
      "ething": 5925,
      "Ġadul": 5926,
      "áĬĲáĮĪáĪ¥áī³": 5927,
      "áĮ¾áĬªáĭ«": 5928,
      "áĮłáī£áīĤ": 5929,
      "Ġdraw": 5930,
      "Ġbranches": 5931,
      "áĪŃáĬµáĪ°áīµ": 5932,
      "ĠBethel": 5933,
      "ĠEleazar": 5934,
      "áīĭáĬķáīĭ": 5935,
      "Ġscattered": 5936,
      "Ġcalamity": 5937,
      "Lord": 5938,
      "While": 5939,
      "Ġáī¸áĭį": 5940,
      "ĠáĪŀáī°": 5941,
      "áĬłáĪĽ": 5942,
      "áĬłáĪ®áĬķ": 5943,
      "áĬłáī¥áĪŃáĪĥáĪĿ": 5944,
      "áĭįáĮ¡": 5945,
      "áĪĪáįĬáīµ": 5946,
      "áĭ¨áĪĲ": 5947,
      "áĭ¨áīłáĮį": 5948,
      "áĭŃáĪ¨": 5949,
      "áĭŃáĪĺáĪĪ": 5950,
      "áĭŃáĮ¨": 5951,
      "áĭŃáĪĺáĪµ": 5952,
      "Ġtown": 5953,
      "orted": 5954,
      "Ġlying": 5955,
      "aniah": 5956,
      "áĪļáĭ«": 5957,
      "áĬ¥áĮįáĭļáĬłáī¥áĪĶ": 5958,
      "áĭ±áĪŃ": 5959,
      "Ġrev": 5960,
      "ĠáĬ¨áĭļáĭ«áĪĿ": 5961,
      "áĭ®áĪµáĪĿ": 5962,
      "Ġstay": 5963,
      "áĬ¤áĪįáĭ«áĪµ": 5964,
      "Ġsepar": 5965,
      "áĭ¨áī°áĪłáĪ«": 5966,
      "áĭ¨áī°áīĪáĮł": 5967,
      "Ġáī°áĬĲ": 5968,
      "Ġalready": 5969,
      "Ġloves": 5970,
      "áĭ¨áĪĿáĭµ": 5971,
      "áĬĲáĪ£áĭį": 5972,
      "Ġplag": 5973,
      "áī°áĬĵáĮĪáĪ©": 5974,
      "áĬ¢áĭ«áĪª": 5975,
      "Ġimage": 5976,
      "theless": 5977,
      "áĭĺáĮĭáĮģ": 5978,
      "áī°áĭĭáĪįáĬĵ": 5979,
      "ĠUzz": 5980,
      "ensils": 5981,
      "ĠAram": 5982,
      "Ġutensils": 5983,
      "áī£áĬķáīº": 5984,
      "áĭķáĪ¨áįį": 5985,
      "Ġterrit": 5986,
      "Ġprofan": 5987,
      "ourage": 5988,
      "ĠáĮĪáĬķáĭĺ": 5989,
      "áĮ£áįĭáĮŃ": 5990,
      "ĠLebanon": 5991,
      "Hear": 5992,
      "Or": 5993,
      "gthen": 5994,
      "ject": 5995,
      "áĮº": 5996,
      "áĬ¥áĪĺáĬĵ": 5997,
      "ints": 5998,
      "áĪĺáī¥áĪį": 5999,
      "áī°áĬŃ": 6000,
      "Ġtomb": 6001,
      "áĪ¨áĬĽáĭİáī½": 6002,
      "Ġhur": 6003,
      "Ġhorns": 6004,
      "áĭĺáĭĿ": 6005,
      "otten": 6006,
      "áĪįáĮ¦": 6007,
      "ĠMY": 6008,
      "áĪ®áĪľ": 6009,
      "ĠáĭĪáĭŃáĪµ": 6010,
      "áĬĵáĮĪáĪ¨áĭį": 6011,
      "Ġran": 6012,
      "eps": 6013,
      "áĭ¨áĪļáĭ«áĭ°áĪŃ": 6014,
      "Ġremove": 6015,
      "Ġwrong": 6016,
      "cript": 6017,
      "áīĦáĪĿ": 6018,
      "teen": 6019,
      "áĭĪáĮ¡áīµ": 6020,
      "Ġsilent": 6021,
      "Ġlooking": 6022,
      "spring": 6023,
      "áĬłáĪ³áĪįáįĮ": 6024,
      "Ġcrown": 6025,
      "áĪĺáīĥáī¥áĪŃ": 6026,
      "áĭŃáĭĪáĮ£áĪį": 6027,
      "áĬłáĮįáĬĿ": 6028,
      "Ġtorn": 6029,
      "Ġabundance": 6030,
      "Ġgrie": 6031,
      "Ġprosper": 6032,
      "Ġsomething": 6033,
      "AN": 6034,
      "iven": 6035,
      "mor": 6036,
      "net": 6037,
      "ĠáĮ¨": 6038,
      "áĮĤ": 6039,
      "áīłáĭ°áĪ¨": 6040,
      "áīłáĪķáĭŃáĭĪ": 6041,
      "áĪĪáĮ¥": 6042,
      "áĪµáĪĭáĪį": 6043,
      "áĭ¨áĭĵ": 6044,
      "áĭ¨áĭĶ": 6045,
      "áĭŃáĬĲáĪ£": 6046,
      "áī°áĮ»áįĪ": 6047,
      "áĮįáĮ¥": 6048,
      "áĮįáī¡": 6049,
      "áī£áĭį": 6050,
      "áĪĽáĪµáīĨ": 6051,
      "ĠáīłáĬŃáī¥áĪŃ": 6052,
      "ĠáĬłáĭ°áĪ¨áĮĪ": 6053,
      "lem": 6054,
      "áĭĪáĭ°áĭµ": 6055,
      "áĮ£áĪĿ": 6056,
      "ushed": 6057,
      "elt": 6058,
      "ĠMid": 6059,
      "áī¤áī±áĪĿ": 6060,
      "Ġweak": 6061,
      "ĠSab": 6062,
      "ĠáĭĪáĪĪ": 6063,
      "áĪ½áī³": 6064,
      "áĬłáĭŃáī¶": 6065,
      "Ġspear": 6066,
      "áĪ¶áĪĿ": 6067,
      "ĠWhich": 6068,
      "áīłáĪįáĮ¥": 6069,
      "Ġearly": 6070,
      "áī²áīµ": 6071,
      "áĭłáĪĺáĪŃ": 6072,
      "áĭĪáĬķáĭĻ": 6073,
      "áĬ³áĬķáĬķ": 6074,
      "Ġplaced": 6075,
      "áī³áĭįáīħ": 6076,
      "áĭŀáī½": 6077,
      "áĮĪáī¥áī¶": 6078,
      "áĪµáĭµáĪ³": 6079,
      "Ġdrun": 6080,
      "áĪįáĮģáĪĿ": 6081,
      "Ġtakes": 6082,
      "Ġsought": 6083,
      "Ġseeking": 6084,
      "áĭ¨áĬĲáīłáĪ¨áĭį": 6085,
      "Ġleader": 6086,
      "áĮ´áĮ¥áĪ®áĪµáĪĿ": 6087,
      "ĠáĭŃáĪħáĬķáĬķáĪĿ": 6088,
      "áĭ«áĭĿáĭ«": 6089,
      "Ġdeceit": 6090,
      "Ġknew": 6091,
      "áĮłáĮķáĪŃ": 6092,
      "áĪµáĮ¦áī³": 6093,
      "Ġsuffer": 6094,
      "áĭ°áĮĥáįį": 6095,
      "ĠArameans": 6096,
      "Like": 6097,
      "Son": 6098,
      "hor": 6099,
      "nagog": 6100,
      "ĠáĪħ": 6101,
      "ĠáīµáĬķ": 6102,
      "áīłáĭ®áĪŃáĭ³áĬĸáĪµ": 6103,
      "áĬłáĪĺáĪµ": 6104,
      "áĬłáīħáĪŃ": 6105,
      "áĬ¥áĮĨ": 6106,
      "áĭŃáĮĪáī£": 6107,
      "áĪĺáĪ¸": 6108,
      "áĬĵáĭ³": 6109,
      "áĬ¨áĪŃáĪ·": 6110,
      "had": 6111,
      "áĮįáįį": 6112,
      "áĮĪáĪł": 6113,
      "Ġcust": 6114,
      "Ġdry": 6115,
      "Ġlep": 6116,
      "áĪ³áĪĪáī½": 6117,
      "áĮłáīħ": 6118,
      "ĠáīłáĪ°áĪĽ": 6119,
      "Ġáīłáĭļáĭ«áĪĿ": 6120,
      "Ġgard": 6121,
      "ĠáĬłáĮĪáĪį": 6122,
      "Ġwilling": 6123,
      "Ġáĭ¨áĬłáī£": 6124,
      "irl": 6125,
      "áĭĲáĪ¥": 6126,
      "Ġsaints": 6127,
      "Ġwept": 6128,
      "áĬĸáĬħ": 6129,
      "áĬĿáĬķ": 6130,
      "ĠáĬ¥áĪŃáĪ·áĪĿ": 6131,
      "áįĭáī¸áĭį": 6132,
      "áĮ¸áĪĵ": 6133,
      "Ġalways": 6134,
      "áĬ¥áĬĵáī±": 6135,
      "áĬ¨áī°áĪį": 6136,
      "áĬłáĪįáĪ°áĪĽ": 6137,
      "áįīáīµ": 6138,
      "Ġriches": 6139,
      "áĬ°áĪ«": 6140,
      "Ġaccomp": 6141,
      "áĭĪáĪĪáĭ±": 6142,
      "Ġbringing": 6143,
      "áĭ«áĪįáįį": 6144,
      "áĭĽáĪ¬áĪĿ": 6145,
      "áĭĺáĮĭáĮħ": 6146,
      "ĠáĪĺáĬĲáĬ°": 6147,
      "Ġwalls": 6148,
      "Ġgarment": 6149,
      "Ġdonkeys": 6150,
      "áĪĺáĮįáī¢áĭ«": 6151,
      "áĬ¥áī£áĬŃáĬ½": 6152,
      "áīµáĪĿáĪħáĪŃáīµ": 6153,
      "Ġgifts": 6154,
      "áĬ¥áĬķáĭ³áĭĺáĭĺáĭį": 6155,
      "Ġslaughter": 6156,
      "áĬłáĮĪáĪįáĮįáĪİáīµ": 6157,
      "ĠGalilee": 6158,
      "ĠShechem": 6159,
      "Ġopposite": 6160,
      "áĮ¸áĪĵáįĬ": 6161,
      "//": 6162,
      "://": 6163,
      "gz": 6164,
      "gna": 6165,
      "iving": 6166,
      "ped": 6167,
      "Ġáĭĭ": 6168,
      "ĠáĬĳ": 6169,
      "Ġáĭ°áĪŃ": 6170,
      "áĪĪáīħ": 6171,
      "áĪĪáĭĭáĪį": 6172,
      "áĪĪáī³áĪį": 6173,
      "Ġwound": 6174,
      "áĭ¨áĬĲ": 6175,
      "áĭ¨áĭ«áĭķáīĨáī¥": 6176,
      "áĬĵáīµáĬĵ": 6177,
      "áĭ«áī½áĬ¹": 6178,
      "áĬ¨áĭĭ": 6179,
      "áĪĭáī½áĭĥáĪį": 6180,
      "ene": 6181,
      "áī³áĭŃ": 6182,
      "Ġhide": 6183,
      "Ġhtt": 6184,
      "áĭĺáĪ«": 6185,
      "áī¥áĪ½": 6186,
      "ĠáĬłáĮĭ": 6187,
      "áīĥáī½áĬ¹": 6188,
      "amel": 6189,
      "áĭ®áĪµáĬķ": 6190,
      "áĬĶáĬķ": 6191,
      "áĭµáĪŃáĮī": 6192,
      "Ġoffspring": 6193,
      "áĬłáĪįáī»": 6194,
      "áĪ¥áĪ«áĭį": 6195,
      "áĬłáĪĿáĪĭáĬ©": 6196,
      "Ġjeal": 6197,
      "ĠMyself": 6198,
      "Ġrather": 6199,
      "Ġused": 6200,
      "áĪ³áĬķáīĥ": 6201,
      "áĪ°áĭŃáĮ£": 6202,
      "ĠAsher": 6203,
      "áīłáįĬáī³áī¸áĭį": 6204,
      "áī°áĪ«áĪ«áĭİáī½": 6205,
      "áīĥáĪīáĬķ": 6206,
      "áįĪáĪįáĮį": 6207,
      "ible": 6208,
      "áįıáĪį": 6209,
      "Ġclothed": 6210,
      "Ġriver": 6211,
      "www": 6212,
      ".\"'\"": 6213,
      "Ġbeautiful": 6214,
      "amargna": 6215,
      "Ġcherubim": 6216,
      "Ġsynagog": 6217,
      "ĠMidian": 6218,
      "gzamargna": 6219,
      "Ġhttp": 6220,
      "Ġjealous": 6221,
      "';": 6222,
      "bel": 6223,
      "nah": 6224,
      "ught": 6225,
      "Ġáĭ»": 6226,
      "áĭ½": 6227,
      "Ġtal": 6228,
      "áĬłáĪ¸": 6229,
      "áĬłáĭ«áĪµ": 6230,
      "áĭ¨áĭ³áĭĬáīµ": 6231,
      "áĭ°áĭ°": 6232,
      "Ġfish": 6233,
      "áī¸áĬĲ": 6234,
      "Ġlot": 6235,
      "áĭ³áĭŃ": 6236,
      "áĮĭáĪĪ": 6237,
      "áĪĨáĭµ": 6238,
      "áĭŃáĪħáī½áĬķ": 6239,
      "áĭ¶áĬķ": 6240,
      "akim": 6241,
      "áĪ£áĪŃ": 6242,
      "áĭµáĬķáīłáĪŃ": 6243,
      "áĭµáĬķáĮįáĪį": 6244,
      "Ġáĭĺáī°": 6245,
      "áĬ¾áĬķáĬ½": 6246,
      "áĪĭáī½áĬ¹áĪĿ": 6247,
      "áĬ¢áĭ¨áĪ±áĪµáĬķ": 6248,
      "áīĢáĪŃáī¦": 6249,
      "áĭŃáĪģáĭ³áĬķ": 6250,
      "ĠFOR": 6251,
      "ĠJob": 6252,
      "áĭ«áĪįáī°": 6253,
      "Ġboast": 6254,
      "Ġdeclare": 6255,
      "áĪĮáĭĭáĭįáĭ«": 6256,
      "áĮ½áĬĵáĬĵ": 6257,
      "Ġwidth": 6258,
      "Ġofficers": 6259,
      "Ġáī´áĭİáĭµ": 6260,
      "Ġprophesy": 6261,
      "Ġabominations": 6262,
      "áĬ¢áīµáĭ®áĮµáĭ«": 6263,
      "Ġterritory": 6264,
      "An": 6265,
      "Are": 6266,
      "ners": 6267,
      "áĬłáĭĽ": 6268,
      "áĬłáĪĺáĪ°": 6269,
      "áĬ¥áĭ«áĪĪ": 6270,
      "áĭŃáĮłáī¥": 6271,
      "áĭŃáīłáĪī": 6272,
      "áĪĺáĪ©": 6273,
      "Ġfaces": 6274,
      "áĭĺáĭŃ": 6275,
      "áĬŃáī¥áĪ©": 6276,
      "áĮłáĪ©": 6277,
      "áĮłáī¦áīµ": 6278,
      "hood": 6279,
      "áĬ½áĪī": 6280,
      "ĠHIS": 6281,
      "áĭĲáĬķáĮĪ": 6282,
      "Ġyours": 6283,
      "áĭĵáĪ£": 6284,
      "adab": 6285,
      "áĭ¨áĪļáĮĪ": 6286,
      "áĬłáĪĪáĬķ": 6287,
      "rog": 6288,
      "áī»áīµ": 6289,
      "áī»áī½áĬķ": 6290,
      "áĪµáĪĿáĬ½": 6291,
      "áĮ»áįĬ": 6292,
      "áĬłáĪµáī°áĭĭ": 6293,
      "áīĪáĮ¥": 6294,
      "ĠáĪģáĬĸ": 6295,
      "áĪĿáĬĵáĪį": 6296,
      "Ġcommander": 6297,
      "áĪĻáĪ´áĬĵ": 6298,
      "Ġroom": 6299,
      "Ġwrite": 6300,
      "Ġcase": 6301,
      "Ġáī¥áĭĻáĭİáī½": 6302,
      "Ġpreach": 6303,
      "Ġrepent": 6304,
      "áĪ¾áī½": 6305,
      "Ġharm": 6306,
      "Ġjudges": 6307,
      "Ġbroke": 6308,
      "áĮ²áĪĭ": 6309,
      "Ġstrengthen": 6310,
      "ĠáĪļáĭ«áĭĿáĭ«": 6311,
      "áĪ°áĪĽáĭ«áĭĬ": 6312,
      "áįįáĪįáĪµáĮ¥áĬ¤áĪĽáĭįáĭ«áĬķáĪĿ": 6313,
      "Ġwidow": 6314,
      "Ġáĭ³áĮįáĪĺáĬĽ": 6315,
      "áįįáĪĭáĮ»": 6316,
      "LE": 6317,
      "who": 6318,
      "Ġáī¥áĪĶáĪŃ": 6319,
      "ĠáĮ£áĭĸ": 6320,
      "áį¨": 6321,
      "áį±": 6322,
      "heth": 6323,
      "áĭ¨áĮĮ": 6324,
      "áĭŃáī½": 6325,
      "áĪĺáĭĵ": 6326,
      "áĪĺáĪĭáĪĪ": 6327,
      "áī°áĬ¨áīµ": 6328,
      "áī°áĪĪáĭŃ": 6329,
      "áī°áĪ°áīłáĪ°áī¡": 6330,
      "áĬ¨áĪķáĭĿáī¡": 6331,
      "áī³áĪĪáī½": 6332,
      "áĬ¥áĬķáĭµáĬķ": 6333,
      "áĪ³áī¸áĭįáĬķ": 6334,
      "Ġheal": 6335,
      "áįįáĭ¨": 6336,
      "ĠáĬłáī¥áĪĶáĪŃ": 6337,
      "áĮĭáĪī": 6338,
      "áīĥáĪĿ": 6339,
      "Ġforget": 6340,
      "Ġel": 6341,
      "áĭĭáĬķáĪĿ": 6342,
      "áĭĲáĭ²áĪµ": 6343,
      "icho": 6344,
      "áĬ¥áĪµáĪ«": 6345,
      "áĬĲáĮĪáĪ¨áĭį": 6346,
      "ada": 6347,
      "Ġshad": 6348,
      "áĪİáĪµ": 6349,
      "áĪ½áī±": 6350,
      "áĬłáĭŃáĬ¾áĬķáĪĿ": 6351,
      "Ġbecomes": 6352,
      "Ġage": 6353,
      "ĠON": 6354,
      "Ġbrings": 6355,
      "Ġris": 6356,
      "ĠNe": 6357,
      "áĬ®áĪ³áīµ": 6358,
      "áĭ¨áĪĿáĬĵ": 6359,
      "áīĢáĪŃáīłáĭį": 6360,
      "áĭĪáĬķáĭµáĪĻ": 6361,
      "áīłáĪ¨áĬ¨áīµ": 6362,
      "áĭ«áĪĪáīħ": 6363,
      "ĠJericho": 6364,
      "Ġroad": 6365,
      "áĬłáĪ³áĪįáįĪ": 6366,
      "Ġprecious": 6367,
      "áĭĪáĬķáĭµáĪŀáī¹áĪĿ": 6368,
      "ĠáĬ¥áĬĵáĬķáī°": 6369,
      "ĠSheol": 6370,
      "Ġhowever": 6371,
      "Ġrejected": 6372,
      "áīłáįįáĮ¹áĪĿ": 6373,
      "áĪĺáĭĽáĪĻáĪŃáī±áĪĿ": 6374,
      "áĪĿáĪįáĬŃ": 6375,
      "Ġforgiven": 6376,
      "Ġseventy": 6377,
      "Ġdefiled": 6378,
      "Ġready": 6379,
      "Ġscribes": 6380,
      "áĪĺáĪ°áĪĿáĪªáĭ«áĭĭáĬķ": 6381,
      "Ġutterly": 6382,
      "áįįáĪŃáĪĢáīµ": 6383,
      "Ġempt": 6384,
      "edekiah": 6385,
      "Ġwonders": 6386,
      "That": 6387,
      "Will": 6388,
      "br": 6389,
      "ges": 6390,
      "lah": 6391,
      "ns": 6392,
      "now": 6393,
      "yal": 6394,
      "ĠáĮĪáĭµ": 6395,
      "ĠáĬķáĮīáĪ¡áĪĿ": 6396,
      "ĠáĬ¥áĬķáĭ²áĪħáĪĿ": 6397,
      "áīłáĪ±": 6398,
      "áīłáī±": 6399,
      "áĬłáĪľáĬķ": 6400,
      "áĪįáī¡": 6401,
      "áĭŃáĬ¾áĬĳ": 6402,
      "Ġmis": 6403,
      "Ġhoney": 6404,
      "áīĢáĪµ": 6405,
      "áīħáĭ«áĪµáĪĿ": 6406,
      "Ġbeat": 6407,
      "áĭ³áĭĶ": 6408,
      "Ġhealed": 6409,
      "áįĪáīĢáĭ°": 6410,
      "áĪŀáīµáĪĿ": 6411,
      "Ġreward": 6412,
      "ility": 6413,
      "Ġass": 6414,
      "áĪ´áĭŃ": 6415,
      "áĪĲáĪĭ": 6416,
      "áĮ»áįį": 6417,
      "áīģáĬķáĪĿ": 6418,
      "abb": 6419,
      "áĬłáī£áī±áĪĿ": 6420,
      "áīĤáĮ£": 6421,
      "áīłáĬ¥áĪĿáĬĲáīµ": 6422,
      "Ġáĭ¨áĪļáĭ«": 6423,
      "Ġswear": 6424,
      "Ġbreath": 6425,
      "áīłáĭļáī½": 6426,
      "ĠAsh": 6427,
      "Ġquest": 6428,
      "ĠáĮ¥áīħáĪĿ": 6429,
      "Ġconsider": 6430,
      "áīłáĪ¬áĭİáī½": 6431,
      "EAR": 6432,
      "áĬłáĪ®áĬķáĪĿ": 6433,
      "Ġruler": 6434,
      "Ġrulers": 6435,
      "Ġdefeated": 6436,
      "áĪĽáĬħáīłáĪŃ": 6437,
      "áīłáĪŃáĪ·áĪĿ": 6438,
      "áĭŃáĪ°áĮ£áĪį": 6439,
      "áĪĺáĪįáĬ¥áĬŃáī°áĬĽ": 6440,
      "áĭ°áĬħáĬķáĬĲáīµ": 6441,
      "Ġforsaken": 6442,
      "ĠAmorites": 6443,
      "áĮĲáĬĵáĮ¸": 6444,
      "AND": 6445,
      "LD": 6446,
      "Spe": 6447,
      "aff": 6448,
      "ech": 6449,
      "áĬłáĪ°": 6450,
      "áĬ¥áĬ¾áĬĵ": 6451,
      "áĪĪáĪħ": 6452,
      "áĭ¨áĭļáĪħ": 6453,
      "áĪĺáĬŃáĪĬ": 6454,
      "áĭ°áĪ°": 6455,
      "Ġfought": 6456,
      "ery": 6457,
      "áīĢáĪĺ": 6458,
      "Ġlist": 6459,
      "áįįáĮ¹áĪĿ": 6460,
      "leavened": 6461,
      "Ġele": 6462,
      "áī¶áī¹áĬķ": 6463,
      "áĪķáĪįáĪĿ": 6464,
      "Ġitself": 6465,
      "Ġthrew": 6466,
      "áĭĿáĮįáī£": 6467,
      "ribut": 6468,
      "áĭ¨áĪļáī½áĪį": 6469,
      "áĪĮáĪĿ": 6470,
      "áĭ®áĭ³áĭĶ": 6471,
      "áĬĶáĪĿ": 6472,
      "áĪĺáĬķáĭĿ": 6473,
      "venge": 6474,
      "áĭ¨áī°áĪĺáĪ¨": 6475,
      "áĬ¥áĬĲáĭļáĭ«": 6476,
      "áĭ¶áī¹": 6477,
      "Ġherself": 6478,
      "áĭ©áīµ": 6479,
      "empt": 6480,
      "áīłáĪĺáĬ¨áĪ«": 6481,
      "áĬłáĮĪáī£": 6482,
      "áĬ®áĪŃ": 6483,
      "áĮĪáĪĪáĮ¡": 6484,
      "áĬµáĪĭ": 6485,
      "áĮĥáĬķ": 6486,
      "áĬ¢áĭ¨áĪ©áĪ³áĪĮáĪĿáĬķ": 6487,
      "áĬ¸áĭįáĬķ": 6488,
      "áĪ°áĪĭáĪĿáī³": 6489,
      "áĪµáįįáĪ«áĭį": 6490,
      "Ġenough": 6491,
      "Ġfew": 6492,
      "áĮłáĪĭáī¶áī¼": 6493,
      "áĪĺáĪŃáĬ¨": 6494,
      "Ġraise": 6495,
      "áĭĪáĪµáĭ°": 6496,
      "áīłáĪĪáĭĵ": 6497,
      "áĭ«áĪ³áĭµ": 6498,
      "ĠáĬ²": 6499,
      "ĠRehob": 6500,
      "Ġdevour": 6501,
      "Ġgrass": 6502,
      "Ġterri": 6503,
      "áīłáĪĺáĬ«áĬ¨áĪĭáī¸áĭį": 6504,
      "áĭķáĭµáĪį": 6505,
      "Ġmaking": 6506,
      "ĠáĬłáĪĿáĪµáīµ": 6507,
      "áĪĺáĪĿáĪħáĪŃ": 6508,
      "áī£áĪĪáĮłáĮį": 6509,
      "áīµáĬ¾áĬĵáĪĪáī½": 6510,
      "Ġáĭ¨áĪĨáĬĳ": 6511,
      "Ġstretched": 6512,
      "Ġtrumpet": 6513,
      "See": 6514,
      "Ġcondem": 6515,
      "áĮįáĪ£áĮ½": 6516,
      "Ġapostles": 6517,
      "Ġáī°áĬłáĪĿáĪ«": 6518,
      "áīħáĪ¬áī³": 6519,
      "áĬ¢áĭ«áĪªáĬ®": 6520,
      "IGH": 6521,
      "pes": 6522,
      "ĠV": 6523,
      "ĠáĪŀ": 6524,
      "ĠáĭħáĪī": 6525,
      "ĠáĬĲáīłáĪ©": 6526,
      "áĬ²": 6527,
      "áīłáĬ¥áĮį": 6528,
      "áīłáĬ¢áĭ®": 6529,
      "áĬłáĭµáĪĿ": 6530,
      "áĪŃáīħ": 6531,
      "áĬ¥áĬ¼áĭ³": 6532,
      "áĪįáĬ»áĪį": 6533,
      "áĭ¨áĬ¢áĭ®": 6534,
      "áĬĵáĪĿ": 6535,
      "áĬ¨áĬŃáįī": 6536,
      "áĭĪáĪį": 6537,
      "Ġban": 6538,
      "áĪ°áĪĪ": 6539,
      "Ġcra": 6540,
      "Ġdish": 6541,
      "Ġgot": 6542,
      "Ġgain": 6543,
      "ĠáĬłáīµáĬĵ": 6544,
      "ashan": 6545,
      "Ġform": 6546,
      "amas": 6547,
      "áĭĲáĪ¨": 6548,
      "Ġupward": 6549,
      "áĮ¨áĭį": 6550,
      "ĠThese": 6551,
      "ously": 6552,
      "áī°áīĢáĪĺáĮ¥": 6553,
      "áĬ°áĬķáĬķ": 6554,
      "Ġarrow": 6555,
      "Ġarrog": 6556,
      "Ġcoll": 6557,
      "áĬ¬áĮ¢": 6558,
      "áĭ¨áĪļáĭ«áĭ°áĪŃáĮį": 6559,
      "ĠáĪĬáīĥ": 6560,
      "áĬ¥áĪĭáĪĪáĬ¹": 6561,
      "áĬĥáĬĴ": 6562,
      "áĬłáĭįáĪ¬": 6563,
      "áĭĪáĪµáĭ³": 6564,
      "Ġslay": 6565,
      "áĪļáĪµáī±": 6566,
      "áĭĺáĪŃáĮį": 6567,
      "Ġmonths": 6568,
      "áĭ«áĪĪáĬ¹áĬĵ": 6569,
      "ESS": 6570,
      "áĭ¨áī³áĪĺáĬĲ": 6571,
      "áĭŃáĪĪáĭĭáĪį": 6572,
      "áįĪáĬķáī³": 6573,
      "ĠáĪĺáĬ°áĬķáĬĳ": 6574,
      "áĪ°áī¥áĪµáīłáĭį": 6575,
      "Ġinterp": 6576,
      "áĪµáĮłáĬķáĮ¢": 6577,
      "ĠSabbath": 6578,
      "iant": 6579,
      "ires": 6580,
      "just": 6581,
      "jour": 6582,
      "tal": 6583,
      "yp": 6584,
      "ĠáĮįáī¥áĮ½": 6585,
      "áĬĨ": 6586,
      "áĮ¼": 6587,
      "áīłáĪĲ": 6588,
      "áĬłáĬ©": 6589,
      "áĪĪáĭ«áĬķáĭ³áĬķ": 6590,
      "áĪµáī±": 6591,
      "Ġocc": 6592,
      "Ġshat": 6593,
      "áĭŃáĮĪáĭµ": 6594,
      "áĪĺáĮ¨áĪ¨áĪ»": 6595,
      "áī°áĮĪáĪĪáĮł": 6596,
      "áĬ¨áĭ°": 6597,
      "áĭĪáĪ©": 6598,
      "áĪ°áįĪáĪŃ": 6599,
      "orah": 6600,
      "Ġmixed": 6601,
      "áĬ¥áĬķáīħ": 6602,
      "Ġpor": 6603,
      "Ġnet": 6604,
      "áĮ¥áĬĵ": 6605,
      "áĮ¥áīłáīł": 6606,
      "ĠAra": 6607,
      "áĬ«áī²áīµ": 6608,
      "áī¤áĪįáĪĿ": 6609,
      "áįĭáĪį": 6610,
      "áĪ®áĬķáĪĿ": 6611,
      "Ġstra": 6612,
      "Ġstop": 6613,
      "ĠBashan": 6614,
      "áĭ¨áī°áĬĵáĮĪáĪ¨": 6615,
      "áĪĺáĪįáĪ°áĭį": 6616,
      "áīłáīµáĬĵ": 6617,
      "áĬłáĬķáĮ¾áĬªáĭ«": 6618,
      "Ġsock": 6619,
      "Ġáī£áĪķ": 6620,
      "Ġart": 6621,
      "áĭ«áĭįáīĥáĪī": 6622,
      "Ġexec": 6623,
      "áĪķáĭĿáī¥áĬ½": 6624,
      "áī¼áĪĿ": 6625,
      "Ġplan": 6626,
      "ĠAbimelech": 6627,
      "Ġpersec": 6628,
      "áī°áĬĵáĮĪáĪ«áī¸áĭį": 6629,
      "Ġaltars": 6630,
      "Ġtenth": 6631,
      "ĠáĪĺáĪįáĬ«áĪĿ": 6632,
      "áĭĲáĭįáĪİ": 6633,
      "ĠáīłáĮ¸áĪİáī±": 6634,
      "Ġprepare": 6635,
      "ĠáĪ¶áīł": 6636,
      "áĬłáĬ«áĭĿ": 6637,
      "ĠSea": 6638,
      "Ġmourning": 6639,
      "áįĪáĮłáĪ¨": 6640,
      "Ġpunishment": 6641,
      "Ġviolence": 6642,
      "áīĥáĪĮáĬķ": 6643,
      "ĠáĪĺáīĥáĪŃáĪµ": 6644,
      "áĪĿáĬĵáĪįáī£áīµ": 6645,
      "Speak": 6646,
      "amascus": 6647,
      "Again": 6648,
      "ior": 6649,
      "iet": 6650,
      "sue": 6651,
      "ued": 6652,
      "Ġáīħáĭ±": 6653,
      "ĠáĭļáĬłáī¥áĪĶáĪŃ": 6654,
      "Ġtalk": 6655,
      "áĪĿáĪ«áīµ": 6656,
      "áīłáĭ³áĭĬáīµ": 6657,
      "áīłáĮ¨áĪĪáĪĽ": 6658,
      "áĬłáĪ«áĭĬáīµ": 6659,
      "áĪĪáĭĪ": 6660,
      "áĪĺáĪİ": 6661,
      "áĭ°áĭ±": 6662,
      "áĬĵáĭĬ": 6663,
      "áī°áĭĺ": 6664,
      "áĬ¨áī£": 6665,
      "áĪ°áĬĲ": 6666,
      "áĪ«áĪ´": 6667,
      "áĮĪáĪĬáĪĭ": 6668,
      "áī£áĪ¨": 6669,
      "Ġche": 6670,
      "Ġcru": 6671,
      "áĪ³áīµáĬķ": 6672,
      "áĮłáĭ¨áīĢ": 6673,
      "ĠáīłáĪ¨": 6674,
      "ĠáĬłáĭ¨": 6675,
      "ĠáĬłáĪ«áīµ": 6676,
      "idence": 6677,
      "Ġeag": 6678,
      "áĪįáĮĥ": 6679,
      "Ġthink": 6680,
      "Ġweight": 6681,
      "áĬĸáĪªáĭ«": 6682,
      "ily": 6683,
      "ordec": 6684,
      "though": 6685,
      "Ġstaff": 6686,
      "Ġdoors": 6687,
      "áĮ»áĪķ": 6688,
      "áĭ¶áĬŃ": 6689,
      "Ġsojour": 6690,
      "Ġjoin": 6691,
      "áĭ©áĬķ": 6692,
      "áĪ°áĭİáī½áĬķ": 6693,
      "Ġáī¥áĪĭ": 6694,
      "áīłáĪĺáĮĪáĬĵáĬĽáĭį": 6695,
      "áĮĲáīł": 6696,
      "áĬ®áīµ": 6697,
      "ĠZedekiah": 6698,
      "Ġforest": 6699,
      "áĬ¢áĭ«áī¡": 6700,
      "áĭĪáĪµáĭ°áĭį": 6701,
      "Ġtents": 6702,
      "áĬłáĬŃáĬłáī¥": 6703,
      "Ġmiddle": 6704,
      "áĮ¾áĪĿ": 6705,
      "áĪĮáĪĬáīµáĪĿ": 6706,
      "áĮ§áīµ": 6707,
      "áī°áĬĲáĪ¥áī°áĭį": 6708,
      "Ġfellow": 6709,
      "áī£áĪªáĭ«áĭİáī½áĬ½": 6710,
      "áĭķáĭįáīĢáīµ": 6711,
      "áĬ¨áįĪáī°": 6712,
      "Ġassembled": 6713,
      "áĭ®áĬĵáī³áĬķ": 6714,
      "áĭ¨áĭŃáĪģáĭ³áĪĿ": 6715,
      "Ġforgive": 6716,
      "áĭ¶áĪĿáĭ«áĪµ": 6717,
      "Ġestablish": 6718,
      "áĬłáī¢áĪľáĪĮáĬŃ": 6719,
      "áĬ¥áĪ°áĮ£áĪĪáĬ¹": 6720,
      "Ġconsumed": 6721,
      "Ġescape": 6722,
      "ĠAlm": 6723,
      "áįĭáĪ²áĬ«": 6724,
      "Ġsprink": 6725,
      "áĬ¢áĭ®áĪŃáī¥áĭĵáĪĿ": 6726,
      "áĬ«áĪŃáĭ«áĪµ": 6727,
      "Ġaffliction": 6728,
      "Ġstreets": 6729,
      "ordecai": 6730,
      "Rem": 6731,
      "fy": 6732,
      "line": 6733,
      "ror": 6734,
      "áīłáĮ½áĭµáīħ": 6735,
      "áĬ¥áīĢ": 6736,
      "áĬ¥áĪĪáĪĿáĬķ": 6737,
      "áĪĪáĭĵ": 6738,
      "áĭ¨áĭ°": 6739,
      "áĭ¨áī¥": 6740,
      "áĭ¨áī£áī¢áĪİáĬķ": 6741,
      "áĭ«áĭ°áĪ¨áĮį": 6742,
      "áĬ¨áĭĲ": 6743,
      "has": 6744,
      "áĪĭáī¸áĭĭáĪį": 6745,
      "Ġband": 6746,
      "Ġma": 6747,
      "Ġdro": 6748,
      "Ġinn": 6749,
      "Ġlad": 6750,
      "Ġhang": 6751,
      "áī¥áĪ»": 6752,
      "áĮłáī½": 6753,
      "áįįáĬķ": 6754,
      "áįįáĮ¥": 6755,
      "áįįáĪ¨áīµ": 6756,
      "Ġgro": 6757,
      "ĠáĬłáĪĺ": 6758,
      "lebr": 6759,
      "ĠHar": 6760,
      "ĠHad": 6761,
      "ĠáĪ¸": 6762,
      "ĠMordecai": 6763,
      "ĠáĪĺáĭµ": 6764,
      "áĬĸáĬķ": 6765,
      "ĠSar": 6766,
      "áĮĮáĭ´": 6767,
      "áĪĺáĬķáĬ°áĪ«": 6768,
      "áĮ¡áĪĿ": 6769,
      "áĬ¥áĬĵáī±áĪĿ": 6770,
      "áĬłáĬķáĮ»": 6771,
      "ĠDamascus": 6772,
      "eph": 6773,
      "áīłáĪ°áĪĻ": 6774,
      "áĬĲáįįáĪ±": 6775,
      "áĮ³áĭįáĪİ": 6776,
      "áī»áī¸áĭįáĬķáĪĿ": 6777,
      "áĬĢáĮ¢áĬłáīµáĪĿ": 6778,
      "umbled": 6779,
      "áĬłáĪķáĭĽáī¥áĬķ": 6780,
      "áĭĪáĪ°áĭ±": 6781,
      "Ġáī°áīĢáīłáĪĪ": 6782,
      "ĠáĪµáĪĿáĬķáīµ": 6783,
      "áĮ½áĭµáīħáĬķ": 6784,
      "áĭķáĬķáīį": 6785,
      "áĪĺáĬķáĮĪáĭ±": 6786,
      "áĪĦáĪ®áĭµ": 6787,
      "Ġcontinued": 6788,
      "áĭĿáĬĵáī¥": 6789,
      "áĬ¨áĪ¨áĪĿ": 6790,
      "Ġmultitude": 6791,
      "ĠáĬłáĭµáĪŃáĮİ": 6792,
      "Ġpromised": 6793,
      "áīĢáĪĭáįĭ": 6794,
      "áĮłáī¢áī¥": 6795,
      "ĠáĮĪáĭ³áĪĽáĭĬ": 6796,
      "áĪ¦áĪµáī°áĬĽáĭįáĪĿ": 6797,
      "Ġpurpose": 6798,
      "áĬĥáĮ¥áĬ£áĬķ": 6799,
      "ĠáĪĺáĮĭáī¢áīµ": 6800,
      "St": 6801,
      "ax": 6802,
      "ĠáĪŃáĪ±": 6803,
      "ĠáĮ½áĬĳ": 6804,
      "Ġáĭ°áĪ¨áĪ°": 6805,
      "áĪĿáĪĪ": 6806,
      "áīłáĬŃ": 6807,
      "áīłáĪµáī°": 6808,
      "áīłáīħáĬķ": 6809,
      "áīłáīįáĮ£": 6810,
      "áīłáĬĲáĮĭ": 6811,
      "áĪĪáĪįáĮħ": 6812,
      "áĭŃáįĪáĪŃ": 6813,
      "áī°áī£áīµ": 6814,
      "áĭ«áĪŃ": 6815,
      "áĬ¨áī±": 6816,
      "áĬ¨áĭħáĪī": 6817,
      "áĬ¨áī¥áĭĻ": 6818,
      "Ġfill": 6819,
      "Ġcorn": 6820,
      "áī³áĭĪ": 6821,
      "áī³áĪĺáĬķ": 6822,
      "Ġyoke": 6823,
      "Ġdet": 6824,
      "áĪĽáĬ¥": 6825,
      "áĪĽáī³": 6826,
      "áĭĺáĭĪáĪŃ": 6827,
      "asp": 6828,
      "áĭĪáĭ°áīģ": 6829,
      "áĭİáī»áī¸áĭįáĪĿ": 6830,
      "áĮ£áī½áĬ¹": 6831,
      "áĪįáĮ¶": 6832,
      "áĭķáĪĿ": 6833,
      "ribe": 6834,
      "áĬĲáĮĪáĪ©": 6835,
      "ilate": 6836,
      "áĪµáĪĪáīµ": 6837,
      "áįĭáĪµ": 6838,
      "Ġsell": 6839,
      "áĪĿáĬķáĬĵ": 6840,
      "áĭĻáįĭ": 6841,
      "Ġáī°áĮĭáĭµáĪİ": 6842,
      "áĪįáĮħáĪĿ": 6843,
      "áĬ¥áĬĵáĭį": 6844,
      "ĠTyre": 6845,
      "aban": 6846,
      "iff": 6847,
      "ember": 6848,
      "áįįáĪ«áīµ": 6849,
      "ĠJehu": 6850,
      "ĠAbner": 6851,
      "Ġroyal": 6852,
      "áīłáĪ©áīµ": 6853,
      "Ġafterward": 6854,
      "ĠáĬĲáī¢áĭŃ": 6855,
      "áī¥áĪįáĬĢ": 6856,
      "ĠáĪķáĭŃáĭĪ": 6857,
      "áī³áī½áĬ¹áĪĿ": 6858,
      "teenth": 6859,
      "Ġjudgments": 6860,
      "Ġstronghold": 6861,
      "ĠáĮįáĭļáĬłáī¥áĪĶáĪŃ": 6862,
      "Ġthousands": 6863,
      "angu": 6864,
      "Ġpillar": 6865,
      "áīĢáĪĪáīł": 6866,
      "Ġtransgressions": 6867,
      "áĭ«áĭ°áĪ¨áĮĪáĭįáĬķ": 6868,
      "áĬ¢áīµáĭ®áĭ½": 6869,
      "áĪĺáĪ°áĮĪáĬĲ": 6870,
      "Ġjourneyed": 6871,
      "Ġmoon": 6872,
      "Ġgift": 6873,
      "Ġfortified": 6874,
      "áĪŀáĮĪáĪµ": 6875,
      "Ġweeping": 6876,
      "ĠBalaam": 6877,
      "áĮłáī¦áī¶áī½": 6878,
      "ĠIshm": 6879,
      "áīłáĮįáĬķáī£": 6880,
      "Ġdrunk": 6881,
      "Ġgarden": 6882,
      "Ġlistened": 6883,
      "ĠAlmighty": 6884,
      "Ġmaj": 6885,
      "IM": 6886,
      "bles": 6887,
      "pah": 6888,
      "son": 6889,
      "Ġ6": 6890,
      "ĠáĬĵáīµ": 6891,
      "áīłáĬ¨": 6892,
      "áīłáĪĮáĪĭ": 6893,
      "áĬłáĬĲáĪ£": 6894,
      "áĬłáīĥáĮł": 6895,
      "áĬ¥áĪĿáĪ®": 6896,
      "áĪĪáįī": 6897,
      "áĭŃáīłáĪį": 6898,
      "áĭ°áĮĪ": 6899,
      "áī¥áįģ": 6900,
      "áī°áĪ¨": 6901,
      "áĬ¨áī³": 6902,
      "áĪĭáĪĽ": 6903,
      "áīĢáīģ": 6904,
      "aring": 6905,
      "áĬŃáĪįáīµ": 6906,
      "atan": 6907,
      "áĪ³áĭ¶": 6908,
      "ĠáīłáįĬáīµ": 6909,
      "hod": 6910,
      "áĬĽáĪĪáĬ½": 6911,
      "Ġthirst": 6912,
      "áī¤áīµáĪĿ": 6913,
      "áī¤áī±áĬķ": 6914,
      "áĪ®áī½áĪĿ": 6915,
      "Ġstor": 6916,
      "ĠáĭĪáĭŃáĪĿ": 6917,
      "áĪĲáĪ¤": 6918,
      "Ġsees": 6919,
      "áĪ°áĪĽáĬ¹": 6920,
      "áĭ¨áī°áīĢáĪĺáĮ¡": 6921,
      "áĬĲáīłáĪ¨áĬĵ": 6922,
      "áĪ¸áĪĽ": 6923,
      "áĬ¥áĬķáĭ³áĭĺáĭĺ": 6924,
      "ards": 6925,
      "ĠWhat": 6926,
      "ĠYourself": 6927,
      "áĬłáĪµáī´": 6928,
      "áĪ°áī£áī±": 6929,
      "Ġcommanders": 6930,
      "áĪ°áĮłáĬĿ": 6931,
      "ĠZe": 6932,
      "Ġtru": 6933,
      "áĮ«áĬķ": 6934,
      "Ġwrote": 6935,
      "evertheless": 6936,
      "áĪ°áĪĿáī¶": 6937,
      "Ġscar": 6938,
      "áĬ¨áĬķáįĪ": 6939,
      "Ġkingdoms": 6940,
      "áĭŃáīĢáĪĺáĮ£": 6941,
      "áĭ¨áĬ¥áĪ³áīµ": 6942,
      "Ġcurtain": 6943,
      "áīłáĭĻáĪªáĭ«áĭį": 6944,
      "áĮįáĪĿáĮĥ": 6945,
      "ĠáĪĺáĪµáīĢáĪį": 6946,
      "áĬłáī£áī¶áī»áī½áĬķ": 6947,
      "Ġrivers": 6948,
      "ĠShime": 6949,
      "Ġdrive": 6950,
      "Ġdesolation": 6951,
      "Ġbulls": 6952,
      "áĬ¢áĭ®áĬłáī¥áĪĿ": 6953,
      "Ġcelebr": 6954,
      "ĠáĪĴáĭ¶": 6955,
      "Ġproduce": 6956,
      "áĪ´áĭ´áīħáĭ«áĪµ": 6957,
      "Ġbehalf": 6958,
      "áĭ±áīĦáīµ": 6959,
      "ĠáĮ¥áīħáĪĿáīµ": 6960,
      "\";": 6961,
      "hom": 6962,
      "áį³": 6963,
      "Ġsand": 6964,
      "áĭ¨áįĬ": 6965,
      "áĭ¨áĬ¢áĭ¨áĪ©áĪ³áĪĮáĪĿ": 6966,
      "áī°áĮ£": 6967,
      "áī½áĭįáĬķ": 6968,
      "Ġfurn": 6969,
      "Ġfier": 6970,
      "áĪ«áī¸áĭįáĬķ": 6971,
      "oned": 6972,
      "áī£áĪĪáī½": 6973,
      "áī³áĭ«": 6974,
      "Ġnin": 6975,
      "Ġlangu": 6976,
      "Ġheed": 6977,
      "Ġhears": 6978,
      "Ġáīłáĭ¨": 6979,
      "áĭĭáĭŃ": 6980,
      "áĪķáī°": 6981,
      "ames": 6982,
      "áĬĽáĭįáĬķ": 6983,
      "ication": 6984,
      "áĪĻáī³áĬķ": 6985,
      "sther": 6986,
      "ĠSimon": 6987,
      "adok": 6988,
      "ords": 6989,
      "Ġsteps": 6990,
      "Ġmeans": 6991,
      "Ġlivest": 6992,
      "áī»áī½áĬ¹áĬķ": 6993,
      "áĭ¨áī°áĪ°": 6994,
      "áĪĿáĬķáĮŃ": 6995,
      "áĪ¬áĬķ": 6996,
      "áīĢáĬķáĬĵ": 6997,
      "áĪ²áĭ«": 6998,
      "ement": 6999,
      "Ġproceed": 7000,
      "ĠNaph": 7001,
      "áīłáĪŃáĮįáĮ¥": 7002,
      "áĪķáĭĿáī¥áĪĿ": 7003,
      "áĮ«áĪĽ": 7004,
      "áĪ³áĭŃáĬ¾áĬķ": 7005,
      "áĬłáĭŃáĭ°áĪĪáĬ¹": 7006,
      "Ġboat": 7007,
      "áįĪáĪ¨áĪ¶": 7008,
      "áĭĪáĮ¥áī°áĭį": 7009,
      "Ġtreacher": 7010,
      "áĭµáĬķáĮĭáĮ¤": 7011,
      "áĬłáĭ°áĪŃáĮį": 7012,
      "Ġsurv": 7013,
      "Ġchariot": 7014,
      "áĪĺáĪ¥áĭĭáĭķáīµáĬĵ": 7015,
      "Ġsupplic": 7016,
      "áĭŃáĭĪáĭµáīĥáĪī": 7017,
      "Ġvaliant": 7018,
      "áĭ³áĮįáĪĺáĬĽáĪĿ": 7019,
      "Ġconsecrated": 7020,
      "Ġnakedness": 7021,
      "áĬłáī¥áĪŃáĪĥáĪĿáĪĿ": 7022,
      "Ġremembered": 7023,
      "áĬ¬áī¥áĪ®áĬķ": 7024,
      "Ġtruly": 7025,
      "Ġlivestock": 7026,
      "UT": 7027,
      "ĠáĪĪáĬ¹": 7028,
      "ĠáĬ¥áĬķáĭ³áĭŃ": 7029,
      "áĬķáĮ¥": 7030,
      "áĪĿáĬŀ": 7031,
      "áīłáĭĪáĮ£": 7032,
      "áīłáĪĻáĪ´": 7033,
      "áīłáĬŃáįī": 7034,
      "áīłáĪĺáĪįáĬ«áĪĿ": 7035,
      "áĬłáĮ¸áĬĵ": 7036,
      "áĬ¥áĪ°áĮ¥": 7037,
      "áĪĪáĬĽáĭį": 7038,
      "áĭ¨áĭĪ": 7039,
      "áĭŃáĬĵ": 7040,
      "áĭŃáįĪ": 7041,
      "áĭŃáĮ¥": 7042,
      "áĭŃáĪĺáĪį": 7043,
      "áĪĺáĪĺ": 7044,
      "áī°áĪ¸": 7045,
      "áĬ¨áĬ¤": 7046,
      "áĪĭáĬŃ": 7047,
      "áĪĭáĪĪáĪĿ": 7048,
      "áĪĭáĬ©": 7049,
      "áĮįáĪįáĬĵ": 7050,
      "Ġbest": 7051,
      "áĪ«áĪĿáĪĿ": 7052,
      "áī£áĪµ": 7053,
      "áī³áĪªáĬŃ": 7054,
      "áĪĽáĬĵáī¸áĭįáĪĿ": 7055,
      "ĠAhi": 7056,
      "ĠHaz": 7057,
      "áĭĲáĪµáī¥": 7058,
      "áĬ¥áĬķáĭ°áĬ¥áĮįáĭļáĬłáī¥áĪĶáĪŃ": 7059,
      "Ġreap": 7060,
      "ĠMost": 7061,
      "áĬ¥áĪµáĪĽ": 7062,
      "áĬ¥áĪµáĬŃáīµ": 7063,
      "Ġstir": 7064,
      "Ġstayed": 7065,
      "áĪªáĭİáī½": 7066,
      "áĪ´áĪĿ": 7067,
      "áĪ°áĪĽáĭķ": 7068,
      "áĪķáĭĿáīħáĭ«áĪµáĪĿ": 7069,
      "áĭµáĬķáīħ": 7070,
      "ĠáĭĺáĪĺ": 7071,
      "áĬ¥áĮħáĬ½áĬķ": 7072,
      "áĬŃáĪŃáĪµáī¶áĪµáĪĿ": 7073,
      "áĮĲáĭ³áĬĵ": 7074,
      "áīłáĪ¨áĪĵ": 7075,
      "Ġdisg": 7076,
      "ĠáĭįáĬĥ": 7077,
      "Ġclose": 7078,
      "Ġreport": 7079,
      "áįĪáĪ¨áĪ¶áī½": 7080,
      "áĮłáĪĭáī¶áī»": 7081,
      "áī¿áĪĿ": 7082,
      "áīłáīĢáĪį": 7083,
      "Ġwarri": 7084,
      "Ġcaptain": 7085,
      "Ġkinds": 7086,
      "However": 7087,
      "Ġdivided": 7088,
      "ĠWITH": 7089,
      "áĭ¨áĪĪáĭįáĪĿ": 7090,
      "áīµáĭįáĪį": 7091,
      "Ġresc": 7092,
      "áĬłáĪ®áĬķáĬķ": 7093,
      "Ġcrossed": 7094,
      "Ġdriven": 7095,
      "Ġdefect": 7096,
      "Ġattention": 7097,
      "Ġcomplet": 7098,
      "áĬ¥áĭįáĬĲáī°áĬĽ": 7099,
      "Ġlampstand": 7100,
      "áĬłáĬķáĭ°áĬĽáĭį": 7101,
      "Ġcleans": 7102,
      "Ġadversaries": 7103,
      "áĮ©áĬ¸áīµ": 7104,
      "áĪĬáī£áĬĸáĪµ": 7105,
      "Ġvirgin": 7106,
      "áĬ¨áĭĭáĬŃ": 7107,
      "Ġelse": 7108,
      "Ġsockets": 7109,
      "Ġinnoc": 7110,
      "áĪĺáĬķáĬ°áĪ«áĬµ": 7111,
      "ĠIshmael": 7112,
      "non": 7113,
      "Ġ7": 7114,
      "ĠáĬ¥áĮįáĭļáĬłáī¥áĪĶáĪŃ": 7115,
      "Ġáī¶": 7116,
      "ĠáĪµáĪĪáĭļáĪħ": 7117,
      "ĠáīĦ": 7118,
      "áĪĿáĪ¥áĪ«áīħ": 7119,
      "áīłáĬ¥áĬĲáĪŃáĪ±áĪĿ": 7120,
      "áīµáĬĸáĪ«": 7121,
      "áĪĪáĬ«": 7122,
      "áĪĪáĪ«áĪ±": 7123,
      "áĪµáī³": 7124,
      "áĭ¨áĬŃáĪŃáĪµáī¶áĪµ": 7125,
      "áĭĪáī°": 7126,
      "áĮįáĭ±": 7127,
      "Ġtow": 7128,
      "Ġmur": 7129,
      "áĭĺáĪ©": 7130,
      "Ġpuri": 7131,
      "áĬŃáĪ©": 7132,
      "áĮłáĬĵ": 7133,
      "Ġáīłáīµ": 7134,
      "áĪļáĬ«áĬ¤áĪį": 7135,
      "lehem": 7136,
      "ĠHE": 7137,
      "ĠHigh": 7138,
      "iri": 7139,
      "raise": 7140,
      "ĠáĪİ": 7141,
      "áĭĿáĪŃ": 7142,
      "elf": 7143,
      "ĠGil": 7144,
      "Ġuse": 7145,
      "ĠSatan": 7146,
      "áĬ¢áĪ³áĭŃ": 7147,
      "áĪĨáĬĳ": 7148,
      "aliah": 7149,
      "áĪµáĪĿáĬķáī°": 7150,
      "áĬłáĭŃáī°áĭį": 7151,
      "áĭĥáīµ": 7152,
      "áĪľáĪĿ": 7153,
      "áĬ¥áĬķáĭ³áĭ°áĪ¨áĮĪ": 7154,
      "áĪĺáĪĪáĬ¨áī°": 7155,
      "áĮ¢áĪŃ": 7156,
      "áĪµáĬķáĭ´": 7157,
      "Ġpride": 7158,
      "áĬ¨áįįáĪį": 7159,
      "ĠJez": 7160,
      "áĪ°áĮłáĬķ": 7161,
      "imeon": 7162,
      "Ġdism": 7163,
      "áīłáĬłáĪ«": 7164,
      "Ġbuy": 7165,
      "Ġrob": 7166,
      "áĭĪáĪĪáĭµ": 7167,
      "áīłáĪĽáĪĪ": 7168,
      "áĬķáĪµáĪĵ": 7169,
      "áĮĪáĭ°áĪīáīµ": 7170,
      "Ġgolden": 7171,
      "áī¿áĬķ": 7172,
      "ivity": 7173,
      "Ġkeeps": 7174,
      "Ġpurple": 7175,
      "Ġbrook": 7176,
      "Ġchoice": 7177,
      "áĭĲáĪĺáįĥ": 7178,
      "áĪłáĪ¨áĮĪáĪĭáĭİáī½": 7179,
      "áĬłáī£áī¶áī»áī½áĬ¹": 7180,
      "Ġbelongs": 7181,
      "Ġterror": 7182,
      "ĠáĪĮáĪĬ": 7183,
      "Ġneedy": 7184,
      "Ġescaped": 7185,
      "áīłáĭ¨áĭĪáĮĪáĬĵáī¸áĭį": 7186,
      "ĠZebul": 7187,
      "ĠNoah": 7188,
      "áĪ²áĬ¦áĪį": 7189,
      "Ġcustom": 7190,
      "áĪĺáĬŃáĪĬáīµ": 7191,
      "tali": 7192,
      "Ġmajest": 7193,
      "Arise": 7194,
      "Listen": 7195,
      "Man": 7196,
      "ST": 7197,
      "came": 7198,
      "ms": 7199,
      "min": 7200,
      "och": 7201,
      "ĠáĭĿ": 7202,
      "Ġáį§": 7203,
      "áĪ¼": 7204,
      "áīłáĬķ": 7205,
      "áĪŃáĮĬ": 7206,
      "áĬ¥áĪ¨áĬĽ": 7207,
      "áĪĪáĬ¥áĬĽ": 7208,
      "Ġsorrow": 7209,
      "áĪĺáĬ½": 7210,
      "rection": 7211,
      "áī¥áĪī": 7212,
      "áĭ«áĪĺáĮ¡": 7213,
      "áĬ¨áĮĮáī³": 7214,
      "áĬ¨áĬłáĬķáīº": 7215,
      "Ġmil": 7216,
      "áī³áĪŃ": 7217,
      "áī³áīĢáĪŃáī£": 7218,
      "Ġdrew": 7219,
      "Ġheav": 7220,
      "áĮ¥áĪ®áĪµ": 7221,
      "áĪŀáĬķáĬķ": 7222,
      "ĠMiz": 7223,
      "áĪĻáĪ½": 7224,
      "ĠScript": 7225,
      "áĪĭáĭŃáĪĿ": 7226,
      "ĠáĬ¥áĭ¨áī°": 7227,
      "áī¡áĪŃ": 7228,
      "áĮĬáĭľáĭį": 7229,
      "ĠáĬ¨áĬł": 7230,
      "áĪ®áĪµáĬķ": 7231,
      "áĬ¤áĪįáĪĿ": 7232,
      "ĠáĭĪáĪ«áīµ": 7233,
      "áĮ¸áĭį": 7234,
      "áī»áī½áĬ¹áĪĿ": 7235,
      "Ġáī°áĬĵáĮĪáĪ¨": 7236,
      "áĪ£áĬ¤": 7237,
      "ĠCOM": 7238,
      "áīĢáĪŃáī¡": 7239,
      "áĭįáĭ«áĬķáĬĵ": 7240,
      "áĬĲáįįáĪ±áĬķ": 7241,
      "Ġunf": 7242,
      "Ġunless": 7243,
      "Ġáĭ¨áī°áĬĲáĪ£": 7244,
      "áĭĲáĪĿáī£": 7245,
      "áĮĵáĭ³": 7246,
      "ĠáĪ°áĪĿ": 7247,
      "áĪĺáĭįáĮ«": 7248,
      "áīłáĭįáĮŃ": 7249,
      "áįĪáĮ½áĪĿ": 7250,
      "Ġends": 7251,
      "áĪµáĪĻáĪĿ": 7252,
      "ĠáĪĺáĪįáĬ¥áĬŃ": 7253,
      "áīłáĭĻáįĭ": 7254,
      "áĮĪáĬĺáĭį": 7255,
      "áĬłáĭŃáĪģáĭµáĪĿ": 7256,
      "áī£áī¢áĪİáĬķáĪĿ": 7257,
      "Ġacted": 7258,
      "áīłáįįáī³": 7259,
      "áĭŃáĪĺáĮ£áĪī": 7260,
      "ogn": 7261,
      "ĠBethlehem": 7262,
      "áĮ¸áĪįáĭ©": 7263,
      "áīłáī¤áī´": 7264,
      "áĬłáīłáī£": 7265,
      "ĠHerod": 7266,
      "Ġhorsemen": 7267,
      "Ġsummon": 7268,
      "Ġvessels": 7269,
      "áĭ¨áĪļáĬ¾áĬĲáĭįáĬķ": 7270,
      "áĪĺáī¤áī³áī½áĬķ": 7271,
      "Ġtalents": 7272,
      "áĭŃáī½áĪĭáĪį": 7273,
      "ĠáĬ²áĪī": 7274,
      "áĬ¥áĬ¼áĭ³áĪĪáĬ¹": 7275,
      "Ġmurd": 7276,
      "gal": 7277,
      "rge": 7278,
      "áį¡áį¡": 7279,
      "áīłáĭħáĪī": 7280,
      "áīµáī¢áĭ«": 7281,
      "áĭįáĪį": 7282,
      "áĪĪáĮĮáī³": 7283,
      "áĭ¨áĭŃ": 7284,
      "áĭ¨áĪĺáĪ¨": 7285,
      "áĭŃáĭ°": 7286,
      "áĭŃáĭĽ": 7287,
      "áĬĲáīĢ": 7288,
      "áĬĵáīµáĬķ": 7289,
      "áĬ¨áĬ¢áĭ¨áĪ©áĪ³áĪĮáĪĿ": 7290,
      "hall": 7291,
      "áĭĪáĪįáĭ°": 7292,
      "Ġbad": 7293,
      "áĪ°áī¡": 7294,
      "Ġmet": 7295,
      "áī£áīµáĬķ": 7296,
      "áī³áĪĭáī½áĬ¹": 7297,
      "áĮłáĪ¨": 7298,
      "ĠáīłáĮİ": 7299,
      "ĠáīłáĪĺáĬķáĮįáĪ¥áī°": 7300,
      "ĠIndeed": 7301,
      "uted": 7302,
      "Ġáĭ¨áĪ°áĪĽáĭķáīµáĬĲáīµ": 7303,
      "áĭĲáĪĪáįĪ": 7304,
      "áĬ«áĪī": 7305,
      "Ġthrow": 7306,
      "áĭĽáįİáī½": 7307,
      "keep": 7308,
      "áĬĸáĪ®": 7309,
      "ĠSid": 7310,
      "ĠSimeon": 7311,
      "roll": 7312,
      "ĠáĬ¨áĪĢáĭ²": 7313,
      "áĪ®áī¤áĪį": 7314,
      "Ġstumble": 7315,
      "aint": 7316,
      "Ġseized": 7317,
      "áĮ¸áĭµ": 7318,
      "act": 7319,
      "áĬłáĭŃáī³": 7320,
      "áĪ¬áĪĿ": 7321,
      "ĠEsther": 7322,
      "áĪ¸áĪĿ": 7323,
      "Ġloc": 7324,
      "alek": 7325,
      "áīłáĪ°áĪľáĬķ": 7326,
      "áīłáĪŃáĪ³áī½áĬ¹": 7327,
      "Ġarom": 7328,
      "áĮĪáī£áĭį": 7329,
      "áĬłáĪĪáīĥáĭİáī½áĪĿ": 7330,
      "Ġnews": 7331,
      "ĠáĪįáī¥áĪµ": 7332,
      "Ġletter": 7333,
      "ĠJude": 7334,
      "ĠZadok": 7335,
      "áĪĺáĮłáĮ¥": 7336,
      "áĪĿáĪµáĪį": 7337,
      "Ġflo": 7338,
      "Ġeating": 7339,
      "Ġcaused": 7340,
      "ĠElisha": 7341,
      "áįĪáĮ½áĪĺáĭį": 7342,
      "áĬłáĪĪáīĥáĭİáī½áĬĵ": 7343,
      "áĭĪáĪ¨áĭ±": 7344,
      "áĮµáĮµ": 7345,
      "áĭ°áĬĲáīģ": 7346,
      "áĭĲáĪĺáįħ": 7347,
      "Ġrecogn": 7348,
      "ĠáīĨáĪ¨": 7349,
      "Ġminist": 7350,
      "Ġperformed": 7351,
      "ĠHaman": 7352,
      "Ġpromise": 7353,
      "ĠáĪĺáĬ°áĬķáĬĳáĪĿ": 7354,
      "Ġscribe": 7355,
      "Ġforsake": 7356,
      "áĪ´áī²áī±áĪĿ": 7357,
      "ĠHAVE": 7358,
      "Ġfriends": 7359,
      "Ġephah": 7360,
      "Ġbaptized": 7361,
      "Ġmultiply": 7362,
      "Ġalien": 7363,
      "Ġtowns": 7364,
      "ĠáĭįáĪĿ": 7365,
      "Ġáĭ«áĪµ": 7366,
      "ĠáĪ¥áĪŃ": 7367,
      "áĮ°": 7368,
      "áĬłáīłáĭĽ": 7369,
      "áĪįáī£áī¸áĭį": 7370,
      "áĪĪáīĥ": 7371,
      "áĪĪáĭµáĬ»": 7372,
      "Ġwish": 7373,
      "áĭ¨áĭĪáĭŃ": 7374,
      "áĭŃáĮĲ": 7375,
      "áĭŃáīĪ": 7376,
      "áĭ°áĪ«": 7377,
      "áĭ°áī£áī£": 7378,
      "áī¥áĪĭáī½áĬ¹": 7379,
      "áĬĵáĪįáĬĵ": 7380,
      "áī°áĬŀ": 7381,
      "haps": 7382,
      "áĭĪáĭĿ": 7383,
      "áĭĪáįİáī½": 7384,
      "áĪĭáįĬ": 7385,
      "áĪĭáĪīáīµ": 7386,
      "áĮĪáīłáī³": 7387,
      "Ġcam": 7388,
      "Ġcourage": 7389,
      "Ġdies": 7390,
      "Ġdread": 7391,
      "áĭĺáĪĪ": 7392,
      "Ġnat": 7393,
      "Ġhat": 7394,
      "áī¥áĪ¬": 7395,
      "ĠáĬłáĭ°áĪ¨": 7396,
      "vere": 7397,
      "Ġeither": 7398,
      "áĬ«áįĪ": 7399,
      "ander": 7400,
      "ĠMary": 7401,
      "áĮīáīµ": 7402,
      "ĠGate": 7403,
      "áĪĻáīµáĬĵ": 7404,
      "áĬĲáĮĪáĪ©áīµ": 7405,
      "Ġsong": 7406,
      "room": 7407,
      "ĠáĬ¨áĭļáĭ«": 7408,
      "ĠáĭĪáĪĭ": 7409,
      "ĠáĭĪáĭ³": 7410,
      "ĠBo": 7411,
      "áĪįáĮĨáī¹áĬķ": 7412,
      "ĠIss": 7413,
      "áĪ¬áĪ³": 7414,
      "antly": 7415,
      "ĠTH": 7416,
      "áĪĥáĭŃáĪĽáĬĸ": 7417,
      "áĬłáīµáįįáĪ«": 7418,
      "isted": 7419,
      "ĠáĪĿáĬ¥áĪĺáĬĵ": 7420,
      "Ġbride": 7421,
      "áĭĪáĭŃáįĪáĬķ": 7422,
      "Ġserp": 7423,
      "ĠNet": 7424,
      "Ġblamel": 7425,
      "áĭ³áĭĬáīµáĬĵ": 7426,
      "Ġext": 7427,
      "Ġplunder": 7428,
      "Ġdisc": 7429,
      "Ġspeech": 7430,
      "ĠKo": 7431,
      "ĠAbram": 7432,
      "áĪĺáĪ°áĬŃáĪŃ": 7433,
      "ĠáīłáĬĥ": 7434,
      "áĮĵáĭĻ": 7435,
      "Ġstands": 7436,
      "ĠáĪµáĪĻ": 7437,
      "áĪ°áĪĿáī°áĭį": 7438,
      "áĪĺáĪŃáĬ¨áī¥": 7439,
      "áĪ¹áĪĿ": 7440,
      "ĠáĬłáĬķáĭ²": 7441,
      "Ġskill": 7442,
      "Ġlament": 7443,
      "Ġconfess": 7444,
      "Ġprince": 7445,
      "áĭ°áĬķáĮį": 7446,
      "áĭ¨áĪļáīĥáĮłáĪį": 7447,
      "Ġworshiped": 7448,
      "Ġapart": 7449,
      "áĬłáĮłáįĭáĪĪáĬ¹": 7450,
      "áī°áīĢáĪĿáĮłáĭį": 7451,
      "cloth": 7452,
      "Ġdespised": 7453,
      "Ġtrumpets": 7454,
      "Ġephod": 7455,
      "áīłáĪĺáĭłáĪĺáĪªáĭ«áĭį": 7456,
      "Ġfulfill": 7457,
      "áĭŃáĬ¼áĭ³áĪį": 7458,
      "Ġcomfort": 7459,
      "Ġthreshing": 7460,
      "Ġveil": 7461,
      "Ġinquire": 7462,
      "âĢ¬âĢ¬": 7463,
      "Ġplague": 7464,
      "Ġquestion": 7465,
      "IGHT": 7466,
      "Ġinterpret": 7467,
      "Ġscarlet": 7468,
      "ĠNaphtali": 7469,
      "Ġcompletely": 7470,
      "áĮµáĮµáĪµáĬĵ": 7471,
      "Ġcamels": 7472,
      "Ġblameless": 7473,
      "HI": 7474,
      "dd": 7475,
      "mit": 7476,
      "wo": 7477,
      "ĠáĮ¢áĪŀ": 7478,
      "áīłáī£áī¢áĪİáĬķ": 7479,
      "áīłáĮ½áĭ®áĬķ": 7480,
      "áĬłáīĢáĪ¨áīł": 7481,
      "Ġol": 7482,
      "Ġsqu": 7483,
      "áĭ¨áĬķ": 7484,
      "áĪĺáĭĺ": 7485,
      "reel": 7486,
      "áĭ°áĪĺ": 7487,
      "áĭ°áī¥áĭ³áī¤": 7488,
      "áī°áįĪ": 7489,
      "áĭ«áĪĺáĪ°": 7490,
      "áĭĪáĭ²áĭ«áĭį": 7491,
      "áĪĭáĪµ": 7492,
      "Ġfirm": 7493,
      "áī£áĭ¶": 7494,
      "áĪĽáīħ": 7495,
      "áĪĽáĪµáī°áĭĭáĪį": 7496,
      "áīħáĮ¥": 7497,
      "ĠáīłáįĬ": 7498,
      "Ġgird": 7499,
      "ĠHas": 7500,
      "áĮ£áĪª": 7501,
      "áĪķáįĥáĬķ": 7502,
      "Ġáĭ¨áī³": 7503,
      "áĭĿáĬĲ": 7504,
      "ĠáĪĺáīħ": 7505,
      "áĮĬáī¥áĭĵ": 7506,
      "add": 7507,
      "Ġstars": 7508,
      "áĪłáĭī": 7509,
      "Ġseas": 7510,
      "ĠáĭŃáĬĳáĪŃ": 7511,
      "áĮ¸áĮ¥": 7512,
      "ĠIsaiah": 7513,
      "ops": 7514,
      "áĮ»áįī": 7515,
      "áĬłáĬķáĪ¥áī¶": 7516,
      "nts": 7517,
      "áĪ²áĭ¶": 7518,
      "áĬłáĮĪáĬĻ": 7519,
      "áīłáĪ°áĪĭáĪĿ": 7520,
      "áĬłáĪĿáĪĭáĬŃáĬ½áĬķ": 7521,
      "áĬµáĪ«": 7522,
      "áĪĿáĬĵáĪĿáĬķ": 7523,
      "ĠJew": 7524,
      "áĭ¨áĬ¥áĪµáĪ«áĬ¤áĪįáĬķáĪĿ": 7525,
      "ĠáĮĪáĭ°": 7526,
      "áĬ¨áĬĲáĭļáĪħ": 7527,
      "áĭįáĪĥáĪĿ": 7528,
      "Ġperfect": 7529,
      "áīłáĪĿáĪ¥áĪ«áīħ": 7530,
      "ĠáĬĲáĬĿ": 7531,
      "Ġeng": 7532,
      "Ġáį©": 7533,
      "Ġreported": 7534,
      "áĪĪáĪļáīĥáĮłáĪį": 7535,
      "ĠAmalek": 7536,
      "áĪ°áĮ¥áī¶": 7537,
      "áĭĪáĮ¥áĪĺáĭµ": 7538,
      "Ġadv": 7539,
      "Ġjudged": 7540,
      "áĭ¨áīĢáĪ©": 7541,
      "Ġpraises": 7542,
      "ĠáĪłáĪ«": 7543,
      "Ġkindness": 7544,
      "ĠJosiah": 7545,
      "áĪĺáĪĪáĬ¨áī±": 7546,
      "ĠáĪĺáĪµáĬ¨áĪ¨áĪĿ": 7547,
      "Ġmeasured": 7548,
      "áĭŃáĪĭáĪįáĬĵ": 7549,
      "áĬ¨áĬłáī£áī¶áī¹": 7550,
      "áĬłáĮĭáĬķáĬķ": 7551,
      "áĭŃáĮłáįĭáĪį": 7552,
      "Ġcreated": 7553,
      "Ġrebellious": 7554,
      "Ġworthless": 7555,
      "Ġincrease": 7556,
      "Ġshepherd": 7557,
      "ĠJehoiada": 7558,
      "áī°áĬ£áĪĿáĪ«áīµ": 7559,
      "ĠáĪĽáĪŃáīĨáĪµ": 7560,
      "Ġcedar": 7561,
      "áĪķáįĢáĬķ": 7562,
      "áĮĭáĪĪáĪŀáī³": 7563,
      "Ġáī´áĭİáĭµáĪ®áĪµ": 7564,
      "Ġinnocent": 7565,
      "ĠJezreel": 7566,
      "VER": 7567,
      "bon": 7568,
      "cess": 7569,
      "tered": 7570,
      "Ġáī½áĬ¹": 7571,
      "ĠáīĪ": 7572,
      "ĠáĮĪáī£": 7573,
      "ĠáĪ°áĮł": 7574,
      "ĠáįĪáĮ½áĪŀ": 7575,
      "ĠáĮ´áĮ¥áĪ®áĪµ": 7576,
      "áīłáĮĮ": 7577,
      "áīłáĪ¥áĪ«": 7578,
      "áīłáĭĪáĪŃáīħ": 7579,
      "áīłáįįáĪŃáĭµ": 7580,
      "áīłáĪľáĭ³": 7581,
      "áĬłáĭĭ": 7582,
      "áĪĪáīł": 7583,
      "áĪµáĪĲ": 7584,
      "áĪĺáĪ¬áīµ": 7585,
      "áĪĺáĬĸáĪªáĭ«": 7586,
      "áĬĲáĮŃ": 7587,
      "áĭ°áĬĲáĮĪ": 7588,
      "áī¥áĭĽ": 7589,
      "áĭ«áĮ¥": 7590,
      "hal": 7591,
      "áĪĭáī½áĪģ": 7592,
      "áĭĺáĮłáĬĿ": 7593,
      "Ġpol": 7594,
      "Ġhast": 7595,
      "áī¥áĪ±": 7596,
      "áĭ³áī¸áĭįáĪĿ": 7597,
      "Ġheap": 7598,
      "ĠHitt": 7599,
      "ĠHIM": 7600,
      "ĠLaban": 7601,
      "áĪ¥áīĥ": 7602,
      "odom": 7603,
      "áĭĲáĬķ": 7604,
      "áĬ«áĪ³": 7605,
      "áĭħáĪīáĬķáĪĿ": 7606,
      "áĬ¥áĬķáĭ°áĪĿáīµ": 7607,
      "ĠáĪĺáĪĪáĪ°": 7608,
      "ursed": 7609,
      "str": 7610,
      "ĠSin": 7611,
      "áī¡áĬĵ": 7612,
      "áĪłáĪ©áīµ": 7613,
      "áĪĲáĪ«": 7614,
      "achel": 7615,
      "ĠáĪĪáĪļ": 7616,
      "Ġspring": 7617,
      "áĬĢáĭ«áĪį": 7618,
      "áīłáīµáĬķáĪĿ": 7619,
      "áī¥áĪŃáĪĿ": 7620,
      "Ġamaz": 7621,
      "áĬłáĬķáī°áĬĵ": 7622,
      "áĮ¢áĪ®áĪµ": 7623,
      "Ġáī¥áĪĪáĭį": 7624,
      "áĬ¼áĭ°áĭį": 7625,
      "áī¶áī½áĪĿ": 7626,
      "Ġovert": 7627,
      "áĭĪáĮ£áĭį": 7628,
      "áĬ«áĬ¨áĪį": 7629,
      "áĮķáĭµ": 7630,
      "ĠRE": 7631,
      "Ġsworn": 7632,
      "áīłáĬłáĮł": 7633,
      "áĪĺáĪįáĬ«áĪĻáĬķ": 7634,
      "áĪįáī¥áĬ½": 7635,
      "Ġprey": 7636,
      "áĭĪáĬķáĭµáĪŀáī¼": 7637,
      "ĠTHEIR": 7638,
      "áĪĺáĬĵáįį": 7639,
      "ĠáīłáĬ¥áĪŃáĪ±": 7640,
      "áĪĺáīħáĪ¨": 7641,
      "Ġfoundation": 7642,
      "áĪ³áĬ¦áĪįáĬķ": 7643,
      "ĠáĮ¸áĮĭ": 7644,
      "Ġfields": 7645,
      "Ġcaptivity": 7646,
      "Ġpleased": 7647,
      "áīħáĪįáĮ¥": 7648,
      "áĬ¥áĮģáĬķáĪĿ": 7649,
      "Ġáĭ¨áĬ¨áīłáĪ¨áī½": 7650,
      "áĪķáĭĿáī¤áĬķ": 7651,
      "Ġfifth": 7652,
      "Ġhills": 7653,
      "áīłáĬµáĪ«áīµ": 7654,
      "áĬłáĮĪáĪįáĮĭ": 7655,
      "Ġinstruction": 7656,
      "áĭĪáĬķáĭµáĪĿáĬ½": 7657,
      "Ġtransgression": 7658,
      "áĬłáīłáĬĶáĪŃ": 7659,
      "áĭĪáĭ²áĭ«áĭįáĪĿ": 7660,
      "áī³áĪĭáĪĭáīħ": 7661,
      "áī³áĪĭáĪĭáīĨ": 7662,
      "Ġprofit": 7663,
      "áĭŃáĬĵáĮĪáĪ«áĪī": 7664,
      "ĠShall": 7665,
      "áĪŃáĭĿáĪĺáī±": 7666,
      "Ġgreet": 7667,
      "Ġworthy": 7668,
      "áīłáĬ¥áĮĥáī¸áĭį": 7669,
      "Ġdemons": 7670,
      "áĪķáĭ«áĭĭáĬķ": 7671,
      "áīłáĭ°áī¡áī¥": 7672,
      "Ġproperty": 7673,
      "Ġsackcloth": 7674,
      "Ġempty": 7675,
      "ĠRehoboam": 7676,
      "ĠSidon": 7677,
      "Ġaroma": 7678,
      "IT": 7679,
      "bus": 7680,
      "kah": 7681,
      "ran": 7682,
      "Ġáĭ®áĪ´áįį": 7683,
      "heba": 7684,
      "áīłáĬ¨áī°áĪĽáĭªáī±": 7685,
      "áĬłáĭ«áĭį": 7686,
      "áĬłáĪ°áĬĵ": 7687,
      "áīµáī°áĭį": 7688,
      "áīµáĪįáīħ": 7689,
      "áĪįáĪ½": 7690,
      "áĪĪáĭļáĪħ": 7691,
      "áĪĪáĬĢáĮ¢áĬłáīµ": 7692,
      "áĪµáĭ«": 7693,
      "áĭ¨áįĪ": 7694,
      "áĭ¨áĬ«áĪħáĬĵáīµ": 7695,
      "áĬ¨áĬ¥áĬĶáĪĿ": 7696,
      "áĭĪáīµ": 7697,
      "áĮįáĭĽ": 7698,
      "áĮĪáĪĿ": 7699,
      "áĮĪáī¥áĪŃ": 7700,
      "áĮĪáĬĲáīµ": 7701,
      "iting": 7702,
      "áī£áī¸áĭĭáĪį": 7703,
      "áī£áī¸áĭĭáĪĪáĬ¹": 7704,
      "Ġcircumcised": 7705,
      "áī³áĮĪ": 7706,
      "Ġyield": 7707,
      "Ġdou": 7708,
      "Ġded": 7709,
      "áĪĽáĪ©": 7710,
      "áĪĽáĪŃáĭ«": 7711,
      "Ġhorn": 7712,
      "áĭĺáĭĪáīµáĪŃ": 7713,
      "Ġpat": 7714,
      "áīĢáĪ±": 7715,
      "áīĢáĬĳ": 7716,
      "áĮłáįį": 7717,
      "ĠáĬłáĪŃáī£": 7718,
      "ĠAi": 7719,
      "ĠAch": 7720,
      "áĭĪáĭ°áĪĺ": 7721,
      "áĪķáĮī": 7722,
      "Ġáĭ¨áĬ¥": 7723,
      "icing": 7724,
      "Ġthick": 7725,
      "ĠMine": 7726,
      "áĬĲáĭįáĪĿ": 7727,
      "ĠáĪĺáĬ°áĬķáĬķ": 7728,
      "áĭĽáī¥áĪİ": 7729,
      "urrection": 7730,
      "áĬĸáī»áī¸áĭį": 7731,
      "ilig": 7732,
      "ĠáĬ¥áĪĿáĬķ": 7733,
      "áįĭáĪī": 7734,
      "áĪ®áī¥áĭĵ": 7735,
      "Ġmeat": 7736,
      "ĠáĭĪáĮĪáĬķ": 7737,
      "ĠáĭŃáĭŀ": 7738,
      "ĠBook": 7739,
      "Ġáī°áīĨ": 7740,
      "áĬ¥áĬĵáĮĪ": 7741,
      "áĭ°áĪ¨áĪ±": 7742,
      "áĬ¨áī°áĪī": 7743,
      "áĬłáīµáĬŃáĪįáīµ": 7744,
      "Ġvain": 7745,
      "iege": 7746,
      "áĬ¥áĬĵáĬķáī°áĬķ": 7747,
      "udden": 7748,
      "áīłáĪĺáĪµ": 7749,
      "ĠCa": 7750,
      "áĬħáĬĵ": 7751,
      "ĠNa": 7752,
      "ĠNile": 7753,
      "Ġacqu": 7754,
      "áĭµáĪĿáįģ": 7755,
      "áī£áĪªáĭ«áĭ¬": 7756,
      "Though": 7757,
      "áĬŃáįīáĬķ": 7758,
      "Ġspend": 7759,
      "áīłáĪĭáĭ«áī¸áĭį": 7760,
      "áĭ¨áĪ°áĪ«áĭĬ": 7761,
      "áĬŃáĪŃáĬŃáĪŃ": 7762,
      "áīłáĭ°áĪĪáĬĽ": 7763,
      "ĠJoash": 7764,
      "agg": 7765,
      "Ġchambers": 7766,
      "ĠTHEY": 7767,
      "aziah": 7768,
      "áĬłáĭ°áĪ¨áĮĪáĭį": 7769,
      "áĪĪáĬĽáĪį": 7770,
      "áīµáĬ¥áĭĽáĭĻ": 7771,
      "ĠáĮ³áĭįáĪİáĪµ": 7772,
      "áī¥áī»áĭįáĬķ": 7773,
      "áĭ¨áĪĪáĪĿáĬĵ": 7774,
      "áī½áĮįáĪ¨áĬĽ": 7775,
      "servant": 7776,
      "áīłáĭŃáĪģáĭ³áĪĿ": 7777,
      "Ġiniquities": 7778,
      "áĮ¥áīłáī¥áĬķ": 7779,
      "Ġwheat": 7780,
      "Ġforgotten": 7781,
      "áĪ¸áĬŃáĪĿ": 7782,
      "áĪĿáĭµáĪªáī±áĬķ": 7783,
      "Ġcrowds": 7784,
      "áīµáĬ¾áĬĵáĪĪáĬ½": 7785,
      "áįįáĪ¨áī°": 7786,
      "áĬĢáĭ«áĪĭ": 7787,
      "Ġtouches": 7788,
      "Ġwitnesses": 7789,
      "áĪ«áĪ³áī¸áĭįáĬķ": 7790,
      "áīłáĪ°áī£áī°áĬĽáĭį": 7791,
      "áĭŃáĪ¥áĪĲáīħáĪĿ": 7792,
      "áī³áĭ°áĪŃáĮĭáĪĪáĬ½": 7793,
      "Ġcompany": 7794,
      "Ġredeemed": 7795,
      "Ġshepherds": 7796,
      "Ġthoughts": 7797,
      "Ġrequest": 7798,
      "áīłáĪ°áĬķáīłáīµ": 7799,
      "ĠáĭĪáĮĪáĬĸáī½": 7800,
      "áĪµáĮłáĬķáĮ¢áĬĸáĪµ": 7801,
      "ĠArab": 7802,
      "Remember": 7803,
      "ĠZebulun": 7804,
      "Ġmilk": 7805,
      "ĠKohath": 7806,
      "'?": 7807,
      "Bring": 7808,
      "Nevertheless": 7809,
      "Ġ5": 7810,
      "ĠáĮĲ": 7811,
      "Ġáĭ²áĭ«": 7812,
      "Ġvenge": 7813,
      "Ġtreat": 7814,
      "áīłáĭ°áĪµáī³": 7815,
      "áĬłáĪ¨": 7816,
      "áĪįáĪĺáĬĵ": 7817,
      "áĪĪáīłáīµ": 7818,
      "áĪµáĪ¨": 7819,
      "áĭ¨áĬłáĬķáĭµ": 7820,
      "áĭ¨áĭįáĪĥ": 7821,
      "áĭ¨áĭŃáĪģáĭ³áĬķ": 7822,
      "áĭŃáĭį": 7823,
      "áĭŃáĬ¨": 7824,
      "áĭŃáĮłáĪ«": 7825,
      "áĪĺáĬĿ": 7826,
      "áĪĺáĪĲáĪĭ": 7827,
      "áī°áĮĪ": 7828,
      "áī°áĮķ": 7829,
      "áī°áĬ¨áĪĪ": 7830,
      "áī°áīĪáĮ£": 7831,
      "áĬ¨áįĬáīµ": 7832,
      "áĬ¨áĬ¨áī°áĪĽ": 7833,
      "áĬ¨áīłáĪŃ": 7834,
      "áĬ¨áī¥áĪį": 7835,
      "áĬ¨áĮ¥áĪ©": 7836,
      "áī½áĪĭ": 7837,
      "Ġbind": 7838,
      "Ġtore": 7839,
      "Ġcaught": 7840,
      "Ġduring": 7841,
      "Ġpress": 7842,
      "Ġáīłáĭį": 7843,
      "áĪ¥áĪ©": 7844,
      "áīĥáĪĪ": 7845,
      "Ġequ": 7846,
      "áĮ£áĪĪáĬ¹": 7847,
      "Ġáĭ¨áĬ¨áīłáĪ©": 7848,
      "amb": 7849,
      "áĭķáĪĪ": 7850,
      "áĪŀáīµáĬķ": 7851,
      "áĬ¥áĪµáĬŃ": 7852,
      "Ġweap": 7853,
      "Ġweary": 7854,
      "ĠSodom": 7855,
      "áĭ¨áĪļáĪĺáĮ£": 7856,
      "áĮ½áĮ³": 7857,
      "Ġann": 7858,
      "ĠáĬ¨áī°": 7859,
      "áĭ®áīħáĪįáĮ¥": 7860,
      "áĪİáĬķ": 7861,
      "Ġseem": 7862,
      "áĮ¸áĬĳ": 7863,
      "ĠáĪĪáĭį": 7864,
      "áĭ¨áī°áĮł": 7865,
      "áĭ¨áī°áĭĭ": 7866,
      "áĪĬáĪĿ": 7867,
      "Ġouter": 7868,
      "ĠEn": 7869,
      "áĭ¶áĪį": 7870,
      "áĭ«áĪµáī°áĭį": 7871,
      "ĠDe": 7872,
      "áĮ¢áĪµ": 7873,
      "Ġrid": 7874,
      "Ġrings": 7875,
      "áīįáĪµ": 7876,
      "Ġloins": 7877,
      "áĮĲáĭ°": 7878,
      "áĮŃáīĥ": 7879,
      "ideon": 7880,
      "áĮĪáī£áī¸áĭį": 7881,
      "Ġaccord": 7882,
      "áī£áĪªáĭ«áĭİáī¹": 7883,
      "ĠRed": 7884,
      "ĠáĬ¥áĬķáĭµ": 7885,
      "ĠKings": 7886,
      "Ġrobe": 7887,
      "Ġeats": 7888,
      "áĬĴáīĨ": 7889,
      "áīłáĪĽáĭ°áĪªáĭ«": 7890,
      "áĬķáĭ«áĪĿáĪĿ": 7891,
      "áĭĪáĭ³áĮħ": 7892,
      "Ġfeared": 7893,
      "Ġendure": 7894,
      "Ġsomeone": 7895,
      "áĪµáĪĻáĬķáĪĿ": 7896,
      "Ġuncircumcised": 7897,
      "ĠáĮįáĬķáī¦áīµ": 7898,
      "áī³áī½áĬķáĬķ": 7899,
      "Ġquiet": 7900,
      "Ġsacrificed": 7901,
      "áĭ«áĪĿáĬĳ": 7902,
      "áĪļáĪµáī±áĬķ": 7903,
      "Ġcaptive": 7904,
      "Ġcaptains": 7905,
      "Ġprayed": 7906,
      "áĬ¨áĬłáĬķáī°áĪĿ": 7907,
      "Whoever": 7908,
      "Ġthrown": 7909,
      "Ġconfidence": 7910,
      "Ġwide": 7911,
      "áĬ¥áĬķáĪµáĪ³áĭİáī½": 7912,
      "Ġmarried": 7913,
      "Ġmessage": 7914,
      "ĠáĬĥáĭŃáĪį": 7915,
      "áīĢáĬĵáī½": 7916,
      "áĪĿáĪķáĪ¨áī±": 7917,
      "Ġrefuse": 7918,
      "áīµáĭķáī¢": 7919,
      "Ġtouch": 7920,
      "Ġconsume": 7921,
      "ĠáĪ´áīµ": 7922,
      "áī¥áĪıáĪįáĬĵ": 7923,
      "áĬ¢áĭ®áĪ³áįįáĮ¥": 7924,
      "áĭ®áĪĲáĬķáĪµáĪĿ": 7925,
      "Ġadulter": 7926,
      "áī£áĪĪáĮłáĮįáĬĲáīµ": 7927,
      "áĬłáĬķáĮ»áĪŃ": 7928,
      "ĠJudea": 7929,
      "Ġfloor": 7930,
      "Ġvengeance": 7931,
      "EE": 7932,
      "KE": 7933,
      "Oh": 7934,
      "Shall": 7935,
      "fl": 7936,
      "lay": 7937,
      "ĠáĬŃáįī": 7938,
      "áĬļ": 7939,
      "áĬķáĮį": 7940,
      "Ġtur": 7941,
      "áīłáĬĢáĭŃ": 7942,
      "áĬłáĬĳ": 7943,
      "áĬłáĪ£": 7944,
      "áĬłáĭİáĬķ": 7945,
      "áīµáĮł": 7946,
      "áīµáĪ°áĮ£": 7947,
      "áĪĪáĬ¥áĬĲáĪŃáĪ±": 7948,
      "Ġought": 7949,
      "áĭ¨áĬ¥áĬĶ": 7950,
      "áĭ¨áĬłáĮĪ": 7951,
      "áĭŃáĬ¼áĭ±": 7952,
      "áĬĲáīħ": 7953,
      "áĬĲáī±áĬķ": 7954,
      "áĭµáĬĢáĬĴ": 7955,
      "áĭĪáĪµáĭµ": 7956,
      "Ġbright": 7957,
      "Ġfra": 7958,
      "áĪ°áĭİáī¹áĪĿ": 7959,
      "áĪ¨áĮ¥": 7960,
      "áī³áī¦": 7961,
      "áĪĽáĪĪáīµ": 7962,
      "áĪĽáĭįáĭ«áĬķ": 7963,
      "Ġhumble": 7964,
      "Ġpain": 7965,
      "áīĢáĪī": 7966,
      "Ġgirl": 7967,
      "ĠáĬłáĪī": 7968,
      "oted": 7969,
      "vel": 7970,
      "áīĥáĪĪáĬķ": 7971,
      "áĭķáĮ£áĬķ": 7972,
      "ical": 7973,
      "áī½áĬ¹áĬķáĪĿ": 7974,
      "urity": 7975,
      "ĠShil": 7976,
      "áĭ¨áĪļáĮł": 7977,
      "áĪĮáĪĭáĪĿ": 7978,
      "ality": 7979,
      "áĪłáĬĿ": 7980,
      "áĪĺáĬķáįĪáĪ³": 7981,
      "achar": 7982,
      "áĭ¨áī°áĪĪ": 7983,
      "Ġupper": 7984,
      "áīĢáĬķáĭ°": 7985,
      "ĠTim": 7986,
      "ift": 7987,
      "áĭ«áĪµáī°áĪ°": 7988,
      "oked": 7989,
      "áįŁáį¥": 7990,
      "Ġvis": 7991,
      "ĠáĭĺáĮłáĬĿ": 7992,
      "áīĥáĪįáĬ½": 7993,
      "áĭĪáĪŃáĭ±áĪĿ": 7994,
      "áĬłáĪµáīĢ": 7995,
      "áīłáĭļáĭ«áī½": 7996,
      "áĮķáĬķ": 7997,
      "Ġsinners": 7998,
      "áĬłáĭµáĪŃáĮĵ": 7999,
      "ĠJebus": 8000,
      "áĪ¥áĮĭáĭį": 8001,
      "ĠRiver": 8002,
      "áĭĲáĭŃáĬĲáīµ": 8003,
      "áĭ¨áĪ°áĪİ": 8004,
      "Ġáį«": 8005,
      "Ġfeed": 8006,
      "Ġáĭķáī¥áĪį": 8007,
      "áįĪáĪ¨áĪµ": 8008,
      "áĪĺáĪŃáĭ¶áĬŃ": 8009,
      "áīłáĭ³áĪĿ": 8010,
      "áĬłáĬŃáĪĬ": 8011,
      "áĭµáĬķáĬ³áĬĳ": 8012,
      "ĠáĬłáĪµáīĢáĭµáĪŀ": 8013,
      "Ġshown": 8014,
      "Ġteeth": 8015,
      "áī°áĪĺáĪįáĬ¨áīµ": 8016,
      "áĪĪáĬ¥áĪµáĪ«áĬ¤áĪįáĪĿ": 8017,
      "chariah": 8018,
      "Ġsixth": 8019,
      "Ġruin": 8020,
      "áįĪáĪ³áĪ½": 8021,
      "áĪ¦áĪµáī±": 8022,
      "ĠáĬĥáĮ¢": 8023,
      "Ġshekel": 8024,
      "Ġtrad": 8025,
      "Ġrevealed": 8026,
      "Ġvineyards": 8027,
      "áĭĲáĪĺáįĢáĬĽ": 8028,
      "ĠGibeah": 8029,
      "Ġprevail": 8030,
      "ĠJesse": 8031,
      "Ġsearch": 8032,
      "áĬ¥áĪĪáĪĿáĬķáĬ»áĪĪáĬ¹": 8033,
      "Ġdetest": 8034,
      "Ġlocust": 8035,
      "áī°áĮķáĭĺáĭį": 8036,
      "Re": 8037,
      "Saul": 8038,
      "come": 8039,
      "uish": 8040,
      "ĠáĬķáĮīáĪ¡": 8041,
      "ĠáīĬ": 8042,
      "Ġtaught": 8043,
      "áĪĿáĮ£": 8044,
      "áĪĿáĪ¨áĭį": 8045,
      "áīłáī½": 8046,
      "áīłáī£áĪķ": 8047,
      "áīłáĮĪáĭĽ": 8048,
      "int": 8049,
      "áĭ¨áīħ": 8050,
      "áĭ¨áĭ³": 8051,
      "áĭ¨áĪŀáī°": 8052,
      "áĭŃáīħ": 8053,
      "áĭŃáĭĭ": 8054,
      "áĭŃáĭĻ": 8055,
      "áĭŃáĮ®": 8056,
      "áĪĺáĪł": 8057,
      "áĪĺáī±áĪĿ": 8058,
      "áī°áĪĿ": 8059,
      "áĬ¨áĬķáĮīáĪ¡": 8060,
      "áĮįáĭ³": 8061,
      "Ġbare": 8062,
      "áĪ°áĪŃ": 8063,
      "áĪ°áīłáĪµ": 8064,
      "áĪ«áĭį": 8065,
      "Ġmal": 8066,
      "Ġmoved": 8067,
      "Ġcent": 8068,
      "áĭĺáĬĲ": 8069,
      "áīĢáĭŃ": 8070,
      "Ġlions": 8071,
      "áĭ³áĪ´": 8072,
      "áĮłáĪĽáĪĽ": 8073,
      "áįįáīħ": 8074,
      "Ġáīłáī³áĪĭáīħ": 8075,
      "Ġgrew": 8076,
      "ĠAre": 8077,
      "ĠHor": 8078,
      "áĪįáĮĩ": 8079,
      "iram": 8080,
      "áĭķáĪį": 8081,
      "áĬ«áĪĽ": 8082,
      "ĠGed": 8083,
      "ĠGers": 8084,
      "áĬ¥áĪµáĬ«": 8085,
      "ĠáĪĺáĭĿ": 8086,
      "ĠSt": 8087,
      "áĭ¨áĪļáĪ°áĪĽ": 8088,
      "ilty": 8089,
      "ĠáĬ¥áĪŃáĪµ": 8090,
      "ĠáĭĪáĪ°": 8091,
      "Ġáī°áĮĪáĪĪáĮł": 8092,
      "áĭ°áĪ¨áī£": 8093,
      "áī¥áĪŃáĬĵ": 8094,
      "laid": 8095,
      "Ġsoothing": 8096,
      "ĠDO": 8097,
      "áīĤáīµ": 8098,
      "hanan": 8099,
      "ĠNathan": 8100,
      "Ġblasp": 8101,
      "áĬ®áĪµ": 8102,
      "áĭ¨áĪĿáĪµ": 8103,
      "áĭĪáĬķáĭµáĪĻáĬķ": 8104,
      "áīłáĬ¥áĮĦ": 8105,
      "Ġarri": 8106,
      "áĮĪáĪĪáī£": 8107,
      "áī·áī¸áĭį": 8108,
      "áĬ¨áįįáī³": 8109,
      "áĭĪáĬķáĭ¶": 8110,
      "ĠáĪįáī¥": 8111,
      "ĠRachel": 8112,
      "Ġunleavened": 8113,
      "áĬ¢áĭ®áī¥": 8114,
      "because": 8115,
      "áĪĮáĪĭáĭİáī½áĬķ": 8116,
      "rupt": 8117,
      "umbling": 8118,
      "Ġrepair": 8119,
      "áĪĺáĬķáĮįáĪ¥áī³áīµ": 8120,
      "áĬ¥áĬķáĭ°áĪļáĭ«": 8121,
      "áĮĪáĪ¨áĭĻ": 8122,
      "áī°áĪĺáĪĪáĪµ": 8123,
      "Ġfalls": 8124,
      "Ġguilty": 8125,
      "áĪĺáĬķáĮĪáĪ¥": 8126,
      "Ġchoose": 8127,
      "áĮ¤áĬŃáĪµ": 8128,
      "ĠáĬ¥áĬĲáĪŃáĪ±": 8129,
      "áĮ£áĭĸáīµ": 8130,
      "áī¶áī¹áĬķáĪĿ": 8131,
      "ĠáĬłáĪŃáĭµ": 8132,
      "áĭ®áĪŃáĭ³áĬĸáĪµáĬķ": 8133,
      "áĪĲáĪ°áī°áĬĽ": 8134,
      "áĭ£áĭ¥": 8135,
      "áī³áĭįáīĥáĪĪáĬ½": 8136,
      "Ġcrushed": 8137,
      "áĪĪáĪ°áĪįáįį": 8138,
      "Ġclouds": 8139,
      "Ġtouched": 8140,
      "Ġabomination": 8141,
      "Ġdealt": 8142,
      "ĠAzariah": 8143,
      "Ġfulfilled": 8144,
      "ĠGibeon": 8145,
      "áīłáĭ«áī£": 8146,
      "Ġhungry": 8147,
      "áĬ¨áĪĪáĭ³áĭįáĭ«áĬķ": 8148,
      "Ġastray": 8149,
      "Ġbask": 8150,
      "Ġgovernor": 8151,
      "Ġaccompl": 8152,
      "áĪĮáĭĭáĭįáĭ«áĬĳáĪĿ": 8153,
      "Ġshadow": 8154,
      "Ġcruc": 8155,
      "ĠZechariah": 8156,
      "Ġheavy": 8157,
      "Ġolive": 8158,
      "eacher": 8159,
      "ihon": 8160,
      "will": 8161,
      "ĠáĮħ": 8162,
      "ĠáĮµáĮµáĪµáĬĵ": 8163,
      "áĮĩ": 8164,
      "áĪĿáĪ°áĪ¶": 8165,
      "Ġahead": 8166,
      "áīłáī£": 8167,
      "áīłáĭĵáĪĪáĪĿ": 8168,
      "áīłáĬ¥áĬĲáĭļáĪħ": 8169,
      "áīłáĭķáĪŃáĪ»": 8170,
      "áĬłáĬĸáĪ¨": 8171,
      "áĬłáīĢáĪ¨áī¡": 8172,
      "áĪŃáĭ®áĪµ": 8173,
      "áīµáĭĪáĪŃ": 8174,
      "áĪįáĬ»áĪĪáĬ¹": 8175,
      "áĪĪáĪĽáĬķ": 8176,
      "inces": 8177,
      "áĭ¨áĪľ": 8178,
      "áĭ¨áĪĭáĬ¨": 8179,
      "áĪĺáĬ¾áĬĳ": 8180,
      "áī¥áĭ«": 8181,
      "áī°áī£áĪĪ": 8182,
      "hai": 8183,
      "áĭĪáĮĭ": 8184,
      "Ġbars": 8185,
      "áĪ°áĬĿ": 8186,
      "áĪ°áĪįáįĪ": 8187,
      "áĪ«áĪ½": 8188,
      "Ġcre": 8189,
      "áī³áĮ¥": 8190,
      "áī³áĬķáĬķ": 8191,
      "Ġpot": 8192,
      "Ġpest": 8193,
      "Ġinside": 8194,
      "athe": 8195,
      "áĪ³áĭµ": 8196,
      "áĮłáīłáīħ": 8197,
      "áĪ±áĬķáĪĿ": 8198,
      "áĬ¥áĮįáĪ©": 8199,
      "áĬ¥áĮįáĪ®áī½": 8200,
      "ĠHEAR": 8201,
      "áī¶áĬķ": 8202,
      "Ġáĭ¨áī¤áī°": 8203,
      "áĭ±áĬķáĪĿ": 8204,
      "áĬ¤áĪĭ": 8205,
      "rac": 8206,
      "ĠJeph": 8207,
      "áī¤áĪķ": 8208,
      "ĠáĪĺáĮ»áĪķ": 8209,
      "ĠST": 8210,
      "áĭ¨áĪļáīĢ": 8211,
      "áĭ¨áĪļáĭĪáĭµ": 8212,
      "Ġstub": 8213,
      "ained": 8214,
      "áĮ¸áĬķ": 8215,
      "áĮ¸áĪĪáĭ¨": 8216,
      "aches": 8217,
      "ĠBy": 8218,
      "áĪįáĮĨáī»áī½áĬ¹": 8219,
      "áĪµáĪĿáĭĸ": 8220,
      "áĭ¨áī°áīĢáĪ¨": 8221,
      "Ġmanner": 8222,
      "Ġáī°áĬķ": 8223,
      "roud": 8224,
      "áĪįáĮĨáī½áĬĵ": 8225,
      "akes": 8226,
      "áĬŃáĪŃáĪµáīµáĬĵ": 8227,
      "resh": 8228,
      "Ġherds": 8229,
      "ĠPilate": 8230,
      "ĠáĭĺáĬłáĬķáīłáī¦": 8231,
      "áīĤáĪŃáĭ«": 8232,
      "áĬ®áĬĲ": 8233,
      "idered": 8234,
      "áĬĲáįįáĪ°": 8235,
      "áĭŃáĪħáĬķáĬķáĪĿ": 8236,
      "ĠáĪįáĪĤ": 8237,
      "Ġswall": 8238,
      "ĠáĪĽáĪŃáĭ«áĪĿ": 8239,
      "ĠáĭįáĬŃáįĪ": 8240,
      "Ġclothing": 8241,
      "ĠáĬłáĭĺáĭĺáĭį": 8242,
      "Ġentire": 8243,
      "áĪµáĭµáī¥": 8244,
      "ĠáīłáĬ¥áĭĿáĬĲ": 8245,
      "Ġfail": 8246,
      "áīħáĭµáĪµáĬĵ": 8247,
      "áīłáīĢáĬĿ": 8248,
      "Ġtaking": 8249,
      "áĬĸáĪ«áĪĪáĬ¹": 8250,
      "ĠáĬłáī¥áĭĳ": 8251,
      "overed": 8252,
      "áī°áĬķáĬ°": 8253,
      "áĬĲáĬ½áĬĵ": 8254,
      "Ġindign": 8255,
      "áĭ®áĬĵáī³áĬķáĪĿ": 8256,
      "áĭ·áī¸áĭį": 8257,
      "ĠáĭĪáĪĺáĬĲáĬ®áĪ³áīµ": 8258,
      "áĭ¨áĬĵáĪµ": 8259,
      "Ġresurrection": 8260,
      "áĭŃáīłáĪĭáĪį": 8261,
      "ĠCanaanites": 8262,
      "Ġslept": 8263,
      "Ġáī´áĭİáĭ¶áĪµ": 8264,
      "áĬ¨áĪĻáī³áĬķ": 8265,
      "áįĪáĪ°áĪ°": 8266,
      "Ġcease": 8267,
      "áĬłáĭĺáĭĽáī¸áĭį": 8268,
      "tended": 8269,
      "Ġrebuke": 8270,
      "áĪ´áī²áī±": 8271,
      "áĭŃáĬĵáĮĪáĪ«áĪį": 8272,
      "Ġpalm": 8273,
      "Ġcertainly": 8274,
      "áĮİáĪŃáĮİáĪŃ": 8275,
      "áīĨáĪŃáĮ¡": 8276,
      "Ġsynagogue": 8277,
      "ĠáĪĬáīĥáĬĲ": 8278,
      "áĬ¨áįįáĪįáĪµáĮ¥áĬ¤áĪĽ": 8279,
      "ĠIssachar": 8280,
      "ĠáĬ¥áĪĿáĬķáĬ¡áĪµ": 8281,
      "ĠCaes": 8282,
      "ĠáĪįáĪĤáīħ": 8283,
      "Indeed": 8284,
      "morrow": 8285,
      "pet": 8286,
      "ĠáĭįáĬķ": 8287,
      "áĪŃáĮįáī¥": 8288,
      "áīµáĬµ": 8289,
      "áĪįáĪĶáĪĿ": 8290,
      "áĪĪáĪį": 8291,
      "áĪĪáĮĭ": 8292,
      "Ġwave": 8293,
      "Ġsow": 8294,
      "áĭ¨áĬĲáĮĪ": 8295,
      "áĭ¨áĪĽáĬķ": 8296,
      "áĪĺáĪµáĪĪ": 8297,
      "áĪĺáĪ£": 8298,
      "áĬĵáĭĬáĭį": 8299,
      "áī°áĪ¸áĬŃ": 8300,
      "áī°áĮįáĪ£áĮ½": 8301,
      "áĭ«áĭĺáĭĺ": 8302,
      "Ġbene": 8303,
      "Ġfre": 8304,
      "Ġfing": 8305,
      "Ġtomorrow": 8306,
      "áĮĪáĭįáĬķ": 8307,
      "Ġproud": 8308,
      "Ġline": 8309,
      "ani": 8310,
      "ĠáĬłáĪīáīµ": 8311,
      "ĠáĬłáĭ°áĪ¨áĮī": 8312,
      "ĠALL": 8313,
      "áĭĪáĭ°áĪĿáīµ": 8314,
      "áĭİáī¼": 8315,
      "áīĥáīµ": 8316,
      "áĪķáĮįáĬķ": 8317,
      "Ġáĭ¨áĬ«áī²áīµ": 8318,
      "Ġthorns": 8319,
      "ĠáĪ¹": 8320,
      "áĭĿáĪĽ": 8321,
      "ĠMatt": 8322,
      "áĭ¨áĪļáĬĵáĮĪáĪŃ": 8323,
      "áĬ¢áĭŃáĭĿ": 8324,
      "ĠáĬ¥áĪ³áīµ": 8325,
      "áĭ®áĪ³": 8326,
      "Ġstore": 8327,
      "áĪ°áĭįáĬķáĪĿ": 8328,
      "ĠáĪĪáĬł": 8329,
      "áīĨáĪ¬": 8330,
      "áĬłáĭŃáī½áĪįáĪĿ": 8331,
      "áĬ¥áĪµáĪ«áĬ¤áĪįáĬķáĪĿ": 8332,
      "áĬĢáįįáĪ¨áī°": 8333,
      "áĬłáī£áī¶áī»áī¸áĭį": 8334,
      "áĪĥáĪĪáĪģ": 8335,
      "áĬ»áĪįáĬķ": 8336,
      "áĬłáīµáįįáĪ©": 8337,
      "áĭµáĬķáĮĪáīµ": 8338,
      "Ġconc": 8339,
      "áĬłáĪµáĬĲáĪ£": 8340,
      "áīłáĪįáī£áī¸áĭį": 8341,
      "áī°áīĢáīłáĪī": 8342,
      "ĠNab": 8343,
      "ĠNaz": 8344,
      "Ġblue": 8345,
      "áīĪáĮ¡": 8346,
      "áīłáĪ¨áĭ¶": 8347,
      "Ġáĭ¨áĪļáī£áĪį": 8348,
      "áĮķáĪ¨": 8349,
      "áĭ«áĭįáīĥáĪį": 8350,
      "áĮįáĪįáĪĻáīµáĬĵ": 8351,
      "áīłáĪĭáĭ«": 8352,
      "Ġperpet": 8353,
      "áĪĢáī¥": 8354,
      "áĪĢáĮĪáĪ¨": 8355,
      "mber": 8356,
      "áįħáĮįáĬĵáī¸áĭį": 8357,
      "Ġboy": 8358,
      "Ġreplied": 8359,
      "áĪºáĪķáĪĿ": 8360,
      "áĬŃáĪŃáĪµáī²áĭ«": 8361,
      "Ġpreser": 8362,
      "áī¶áī»áī¸áĭįáĬķ": 8363,
      "Ġwherever": 8364,
      "áĭ«áĭķáīĨáī¥áĬķ": 8365,
      "áĭµáĬķáĮĭáĭ®áī½": 8366,
      "áĪŀáī°áĪĿ": 8367,
      "áįĪáĪ©áĪĿ": 8368,
      "Ġcontribut": 8369,
      "Ġwalking": 8370,
      "áĭĲáĭįáĭµáĪĽ": 8371,
      "áĮĪáĪįáĮ¥": 8372,
      "Ġdistance": 8373,
      "áĬłáĬķáĭ²áī±": 8374,
      "Ġpersons": 8375,
      "Ġparts": 8376,
      "ĠáĬłáĭŃáĭ°": 8377,
      "áī£áĪįáĬķáĮĢáĪ«áĭį": 8378,
      "Ġinstru": 8379,
      "áĪĺáĭĿáĪĻáĪŃ": 8380,
      "ccording": 8381,
      "áĪŃáĪ³áī¤áĪķ": 8382,
      "Ġdecree": 8383,
      "ĠáĪĢáĮĪáĪŃ": 8384,
      "ĠáĪģáĪĪáī±": 8385,
      "Ġtreasures": 8386,
      "Ġcovering": 8387,
      "áĭĲáĪįáįİ": 8388,
      "Ġpalace": 8389,
      "áĭŃáĪ¥áĪĲáīħ": 8390,
      "Ġcorrupt": 8391,
      "Ġtremble": 8392,
      "Ġconceived": 8393,
      "áĬłáī¥áĭ«áī°": 8394,
      "áĮłáĭŃáīħ": 8395,
      "Ġpursued": 8396,
      "Ġanimal": 8397,
      "áī°áĮłáĬķáīĢáīģ": 8398,
      "áĬ¾áĬĹáĪį": 8399,
      "áĭŃáĪŀáī³áĪį": 8400,
      "ĠáĮĪáĬķáĭĺáī¥": 8401,
      "áĮĲáĬĵáĮ¸áįĬáĭ«": 8402,
      "ĠáĪķáĭŃáĭĪáīµ": 8403,
      "ĠShimei": 8404,
      "ĠMizpah": 8405,
      "ĠáĬłáĬķáĭ²áīµ": 8406,
      "uddenly": 8407,
      "áĬ¨áī¥áĪįáįħáĮįáĬĵáī¸áĭį": 8408,
      "El": 8409,
      "af": 8410,
      "dra": 8411,
      "five": 8412,
      "kes": 8413,
      "phan": 8414,
      "wor": 8415,
      "Ġáĭ±": 8416,
      "ĠáĪµáīµ": 8417,
      "Ġill": 8418,
      "Ġround": 8419,
      "áīłáī´": 8420,
      "áīłáī¤áī°": 8421,
      "áīłáĪķáĮį": 8422,
      "áĬłáĭ©": 8423,
      "áĬłáī³áĪµ": 8424,
      "áīµáī¶": 8425,
      "áĪĪáĪĮáĪĭ": 8426,
      "áĪµáĮ¡": 8427,
      "áĭ¨áĮĭ": 8428,
      "áĭ¨áĬŃáī¥áĪŃ": 8429,
      "áĭ¨áĪĺáī¶": 8430,
      "áĭŃáĪµáĮ¥": 8431,
      "áĭŃáĮĪáĭĽ": 8432,
      "áĪĺáĪ³áįį": 8433,
      "áĪĺáĪłáĪ¨": 8434,
      "áĬĲáĭµ": 8435,
      "áĭ«áī°": 8436,
      "áĭ«áĪĪáī½": 8437,
      "áĬ¨áĬłáĪķáĭĽáī¥": 8438,
      "áĬ¨áĭĪáĭ´áīµ": 8439,
      "áĭĪáįį": 8440,
      "áĭĪáĪªáĭ«": 8441,
      "áĪ°áĬĲáįį": 8442,
      "áĪ°áĮĪáĭ°": 8443,
      "áĪ°áĮĪáĭ±": 8444,
      "áĪ¨áī¡": 8445,
      "áī£áī³áĪį": 8446,
      "Ġda": 8447,
      "áĪ³áī±áĪĿ": 8448,
      "Ġheld": 8449,
      "áįĪáĪ©áīµ": 8450,
      "ĠáĬłáĪĭáīµ": 8451,
      "otted": 8452,
      "ĠLot": 8453,
      "áĬĽáĪĭáī½áĬ¹": 8454,
      "áĭĲáĬĵ": 8455,
      "ĠME": 8456,
      "ety": 8457,
      "ĠGideon": 8458,
      "ilence": 8459,
      "áĪĮáĭĬ": 8460,
      "alm": 8461,
      "alt": 8462,
      "ĠáĬ¨áĪģ": 8463,
      "áĬ¤áĪįáĬķ": 8464,
      "ĠáĭĪáĮ¥áī¶": 8465,
      "ĠáĪĪáĪĿ": 8466,
      "ĠáĪĪáĬ¨": 8467,
      "áĭ¨áī°áī£áĪĪ": 8468,
      "Ġupro": 8469,
      "áĪĬáĬ¾áĬķ": 8470,
      "áĬ¥áĬĵáĭ°áĪŃ": 8471,
      "áĬłáĬķáīĢáĪĭáįĭ": 8472,
      "áī¤áīµáĬ½": 8473,
      "áĭ«áĪµáĮ¨áĬķ": 8474,
      "áī¦áĬķ": 8475,
      "áĮ¢áįĭ": 8476,
      "áĪ¶áĬķáĪĿ": 8477,
      "áīłáĪĺáĪŃ": 8478,
      "áĭ´áĭİáī½": 8479,
      "Ġoverth": 8480,
      "áīłáĪ°áĪįáįį": 8481,
      "áĪ·áĪį": 8482,
      "ĠáĬķáĭ°": 8483,
      "áĭµáĪĿáįĥ": 8484,
      "ĠáĪ°áĪĽáĭ«áīµ": 8485,
      "ĠZi": 8486,
      "áĪĺáĮłáĮĬáĭ«": 8487,
      "áīłáĬłáĪŃ": 8488,
      "áĮįáĪįáĮ¥": 8489,
      "ĠáĮĪáī¥": 8490,
      "áĭ¨áĪ°áĭįáĬķ": 8491,
      "áĬ¹áĪĪáīµáĪĿ": 8492,
      "Ġperver": 8493,
      "áĭŀáīµ": 8494,
      "áĭŀáĪ¨": 8495,
      "áĪĪáĪĽáĭµáĪ¨áĮį": 8496,
      "ĠáĪĪáĭĺáĪĭáĪĪáĪĿ": 8497,
      "ĠáĪ°áĬĶ": 8498,
      "áĮģáĬķ": 8499,
      "áĪ«áĪ±áĬķáĪĿ": 8500,
      "áīĦáĮ¥áĪµ": 8501,
      "Ġrepay": 8502,
      "Ġdrank": 8503,
      "áĬ¥áĭĽáĭĿ": 8504,
      "ĠáĪµáĪĿáĭĸáĬķ": 8505,
      "Ġimages": 8506,
      "áīłáĪĪáĪµ": 8507,
      "áĪ°áī¥áĬŃ": 8508,
      "Ġarmies": 8509,
      "ĠáīłáĪ¨áĬ¨áī³áī¸áĭį": 8510,
      "áĪĪáĭĺáĪĪáĭĵáĪĪáĪĿáĪĿ": 8511,
      "Ġpassing": 8512,
      "áĭŃáīĢáĪĺáĮ¡": 8513,
      "áĮ¥áĬķáīµ": 8514,
      "Ġ10": 8515,
      "áĪĺáĭĽáĮįáī¥": 8516,
      "áī°áĪĺáĪįáĪ¶": 8517,
      "Ġpresented": 8518,
      "ĠáĬłáĭŃáī¶": 8519,
      "áĬłáĪ«áī°áĬĽáĭį": 8520,
      "HAT": 8521,
      "Ġpiece": 8522,
      "áĭķáĪ¨áįįáīµ": 8523,
      "Ġordinance": 8524,
      "áĭĲáĪįáĮĭ": 8525,
      "Ġfaithfulness": 8526,
      "ĠáĪ¥áīĥáĭŃáĬķ": 8527,
      "áī°áĬ£áĪĿáĪ«": 8528,
      "áĭ¨áīĢáĪ¨áĭįáĪĿ": 8529,
      "Ġgranted": 8530,
      "áĪĺáīħáĪłáįįáīµ": 8531,
      "Ġlearn": 8532,
      "áĭ¨áī°áīĪáĮłáĪ©áīµ": 8533,
      "Ġarrows": 8534,
      "Ġlanguage": 8535,
      "Ġamazed": 8536,
      "áĬ¥áĬĵáĮĪáĪ«áĪĪáĬ¹": 8537,
      "Ġpestilence": 8538,
      "Some": 8539,
      "YOU": 8540,
      "aim": 8541,
      "aith": 8542,
      "from": 8543,
      "rates": 8544,
      "unt": 8545,
      "ĠáĪįáĬĵ": 8546,
      "ĠáĬ¥áĬķáĭ²áĪģ": 8547,
      "ĠáĪ³áĪĪ": 8548,
      "ĠáĪŀáī±": 8549,
      "áĬŁ": 8550,
      "áīłáĪ³": 8551,
      "áīłáīĢáĬķ": 8552,
      "áīłáĬĢáĮ¢áĬł": 8553,
      "áīłáĭłáĪĺáĪ¨": 8554,
      "áĬłáĭķ": 8555,
      "áĬłáĪŀ": 8556,
      "áĪŃáĭŃ": 8557,
      "áĪĪáĭ©": 8558,
      "Ġsiege": 8559,
      "áĭ¨áĮ½": 8560,
      "áĭ¨áīĢáĭ°": 8561,
      "áĭŃáĪī": 8562,
      "áĭŃáĮłáī¥áīģ": 8563,
      "áĬĵáĬŃ": 8564,
      "áī°áĬĵáĪį": 8565,
      "áĬ¨áĭ°áīĢ": 8566,
      "áī½áīłáīµ": 8567,
      "áĪĭáĪĪáī½": 8568,
      "áĪ«áĪĶ": 8569,
      "áĮĪáĪĺáĭµ": 8570,
      "áĪ¨áĪ³": 8571,
      "áī³áĭµ": 8572,
      "áī³áĮłáįĭ": 8573,
      "áī³áī½áĬķáĪĿ": 8574,
      "Ġdail": 8575,
      "Ġdomin": 8576,
      "Ġhired": 8577,
      "áīĢáī½": 8578,
      "Ġhated": 8579,
      "ating": 8580,
      "atch": 8581,
      "áĪ³áī¥": 8582,
      "áĭ³áī¸áĭįáĬķ": 8583,
      "ĠáĬłáĭµ": 8584,
      "áĬ½áĬķáĬĵ": 8585,
      "Ġemb": 8586,
      "áĮ£áĪĪáī½": 8587,
      "Ġáĭ¨áĭĭ": 8588,
      "Ġáĭ¨áĬ¥áĪµáĬŃáĬķáĭµáĪŃáĭ«": 8589,
      "áĭķáĭ³": 8590,
      "áĭķáī¥áĪ«": 8591,
      "ĠJames": 8592,
      "Ġreached": 8593,
      "eturn": 8594,
      "ĠáĪĺáĪĿ": 8595,
      "áĭĽáĬķ": 8596,
      "áĭ¨áĪļáĪĺáĪµáĪį": 8597,
      "Ġsevere": 8598,
      "áĪŃáĪµáī±": 8599,
      "ĠEz": 8600,
      "áīĢáĬķáīłáĪŃ": 8601,
      "áĬłáĬķáĪ¥": 8602,
      "Ġamb": 8603,
      "áĪ¸áĬ¨áĪĻ": 8604,
      "áĬ¥áĬķáĭ³áĪĪáĭį": 8605,
      "Ġvan": 8606,
      "ĠPer": 8607,
      "áĬłáĬķáĭµáĪĿ": 8608,
      "áīłáĪĺáĮ¡": 8609,
      "áĭĪáĪŃáĭ±": 8610,
      "áĭĪáĪŃáīħáĪĿ": 8611,
      "Ġnobles": 8612,
      "umer": 8613,
      "Ġoverlaid": 8614,
      "usted": 8615,
      "áī°áīĢáīłáĪ¨": 8616,
      "Here": 8617,
      "fection": 8618,
      "áĮĲáĭµ": 8619,
      "áĭ¨áĪĿáĪ¥áĪ«": 8620,
      "Ġknowing": 8621,
      "hips": 8622,
      "áĮķáĪŃ": 8623,
      "áĬłáī¥áĭĿ": 8624,
      "Ġdiscer": 8625,
      "Ġdesires": 8626,
      "Ġflood": 8627,
      "áīłáĪĭáĭ©": 8628,
      "áĪ¨áĬ¨áĪ±": 8629,
      "áĬłáĪ³áĭ°": 8630,
      "Ġgrave": 8631,
      "áĪµáĭµáĪµ": 8632,
      "áįĢáĬĲ": 8633,
      "arer": 8634,
      "áī¶áī»áī½áĬķ": 8635,
      "áīłáĪ«áĪį": 8636,
      "ĠáĮ¸áĪĪáĭ¨": 8637,
      "ĠáĮ¥áĪĿ": 8638,
      "Ġtestify": 8639,
      "ĠáĬ¨áĬ¥áĪŃáĪ±áĪĿ": 8640,
      "áĬłáĪĿáĮ¡": 8641,
      "Ġdwells": 8642,
      "áĭµáĮĵáĭµ": 8643,
      "áī³áĬĵáĪ¹": 8644,
      "áĮ½áĬĳáĭĵáĬķ": 8645,
      "áĪ¸áĬŃáĪĭ": 8646,
      "áįĢáĪĵáĭŃáĪĿ": 8647,
      "áĬłáĭµáĬĲáĬĿ": 8648,
      "áīłáĪ°áĪĽáĪŃáĭ«": 8649,
      "áĪĿáĭµáĪªáī±áĪĿ": 8650,
      "ĠáĪĮáĪĭ": 8651,
      "ĠSeir": 8652,
      "áĬłáĭµáĪŃáĮĪáĬ½": 8653,
      "Ġcareful": 8654,
      "Ġstretch": 8655,
      "Ġrebelled": 8656,
      "áĬŃáįĭáīµáĬķ": 8657,
      "áĪŀáĪ«áĭįáĭ«áĬķ": 8658,
      "áĬªáĪ©áī¤áĪį": 8659,
      "ĠBalak": 8660,
      "áĪĺáĭµáĬĢáĬĴáīµ": 8661,
      "Ġstrangers": 8662,
      "áĪĺáīħáĪłáįį": 8663,
      "Ġpaths": 8664,
      "áĬ¨áĭĪáĪ©áĪĿ": 8665,
      "Ġfurther": 8666,
      "áĬłáīħáĪŃáī¡": 8667,
      "áĬ¥áĬ¾áĬĵáĪĪáĬ¹": 8668,
      "áĬ¥áĪ°áĮ¥áĬ»áĪĪáĬ¹": 8669,
      "ĠGilgal": 8670,
      "Ġdismayed": 8671,
      "keepers": 8672,
      "Ġinterpretation": 8673,
      "áĭĪáĭ°áĪĺáĮĪáĬĵáĬĽáĭį": 8674,
      "Ġconcub": 8675,
      "Ġdaily": 8676,
      "Get": 8677,
      "RA": 8678,
[...]
